<pad>	0
<unk>	0
<s>	0
</s>	0
{	0
}	0
(	0
)	0
;	0
▁i	-0
re	-1
▁=	-2
in	-3
->	-4
er	-5
st	-6
en	-7
se	-8
ma	-9
on	-10
▁*	-11
▁c	-12
▁if	-13
at	-14
or	-15
ge	-16
le	-17
▁t	-18
de	-19
al	-20
si	-21
ar	-22
mage	-23
▁b	-24
▁p	-25
an	-26
el	-27
it	-28
▁re	-29
▁s	-30
▁f	-31
ck	-32
he	-33
ad	-34
me	-35
▁0	-36
ct	-37
▁/	-38
lo	-39
ro	-40
ze	-41
ur	-42
un	-43
co	-44
pt	-45
ut	-46
mp	-47
▁&	-48
ex	-49
ch	-50
ot	-51
ce	-52
ff	-53
size	-54
id	-55
▁==	-56
ing	-57
ion	-58
image	-59
▁g	-60
▁in	-61
▁"	-62
ent	-63
▁n	-64
len	-65
▁/*	-66
ed	-67
ag	-68
fo	-69
▁*/	-70
▁o	-71
str	-72
um	-73
et	-74
▁<	-75
▁N	-76
rea	-77
ue	-78
pe	-79
yy	-80
▁ret	-81
▁a	-82
ase	-83
int	-84
▁d	-85
UL	-86
tr	-87
▁1	-88
ile	-89
▁!	-90
▁w	-91
urn	-92
ata	-93
▁the	-94
ss	-95
ame	-96
info	-97
",	-98
▁return	-99
set	-100
▁+	-101
reak	-102
ULL	-103
▁case	-104
▁break	-105
val	-106
▁'	-107
oto	-108
ER	-109
th	-110
▁goto	-111
li	-112
err	-113
IN	-114
▁!=	-115
▁-	-116
▁NULL	-117
us	-118
▁m	-119
else	-120
ate	-121
ix	-122
ype	-123
ext	-124
▁else	-125
ick	-126
▁S	-127
bu	-128
if	-129
end	-130
▁ch	-131
is	-132
es	-133
gn	-134
▁T	-135
RE	-136
Mag	-137
Magick	-138
ption	-139
ol	-140
▁st	-141
▁int	-142
In	-143
▁&&	-144
OR	-145
▁|	-146
con	-147
▁to	-148
▁for	-149
▁yy	-150
la	-151
▁con	-152
ixel	-153
Image	-154
pa	-155
ul	-156
▁C	-157
il	-158
data	-159
ic	-160
++	-161
ha	-162
▁>	-163
Re	-164
--	-165
▁de	-166
vo	-167
ble	-168
ode	-169
ve	-170
ig	-171
AT	-172
res	-173
up	-174
and	-175
AL	-176
▁str	-177
get	-178
col	-179
void	-180
▁char	-181
op	-182
▁size	-183
32	-184
▁r	-185
▁F	-186
sign	-187
ST	-188
LE	-189
DE	-190
ON	-191
▁image	-192
▁#	-193
ffset	-194
add	-195
ra	-196
ver	-197
ca	-198
te	-199
ke	-200
type	-201
ader	-202
▁%	-203
uct	-204
sion	-205
ine	-206
gth	-207
].	-208
▁P	-209
of	-210
▁//	-211
ort	-212
Get	-213
ir	-214
error	-215
unt	-216
ite	-217
mat	-218
value	-219
lob	-220
▁||	-221
▁is	-222
ms	-223
signed	-224
▁l	-225
00	-226
od	-227
ffer	-228
SE	-229
ception	-230
yych	-231
▁<=	-232
ack	-233
▁A	-234
map	-235
ew	-236
pr	-237
row	-238
▁th	-239
unsigned	-240
ant	-241
put	-242
qu	-243
▁u	-244
▁E	-245
lag	-246
name	-247
::	-248
length	-249
do	-250
to	-251
▁2	-252
ree	-253
vi	-254
buf	-255
OP	-256
▁M	-257
code	-258
▁h	-259
ult	-260
▁I	-261
ter	-262
loc	-263
sc	-264
file	-265
per	-266
Blob	-267
ip	-268
sk	-269
▁W	-270
art	-271
▁e	-272
key	-273
ry	-274
po	-275
LO	-276
ation	-277
ERR	-278
nt	-279
AR	-280
alse	-281
ptr	-282
atus	-283
lock	-284
,"	-285
▁co	-286
EN	-287
text	-288
▁ma	-289
IT	-290
Ex	-291
arg	-292
fa	-293
able	-294
Lo	-295
ht	-296
▁B	-297
di	-298
ly	-299
num	-300
rite	-301
▁of	-302
SS	-303
age	-304
▁G	-305
Str	-306
antum	-307
▁D	-308
▁x	-309
cp	-310
ect	-311
16	-312
color	-313
▁me	-314
PE	-315
lags	-316
FF	-317
[0	-318
read	-319
Co	-320
▁Magick	-321
pro	-322
bj	-323
ng	-324
ctx	-325
Pixel	-326
AC	-327
out	-328
ME	-329
sp	-330
header	-331
ize	-332
▁struct	-333
▁sizeof	-334
▁R	-335
ord	-336
rr	-337
ist	-338
YY	-339
=0	-340
INT	-341
▁be	-342
MA	-343
▁ex	-344
▁out	-345
String	-346
ory	-347
ap	-348
Read	-349
def	-350
par	-351
cur	-352
mple	-353
UR	-354
dex	-355
ri	-356
em	-357
▁const	-358
▁we	-359
ong	-360
cale	-361
ime	-362
sh	-363
Qu	-364
▁j	-365
▁data	-366
char	-367
▁bu	-368
False	-369
▁al	-370
ub	-371
BU	-372
ath	-373
list	-374
▁wh	-375
offset	-376
ment	-377
line	-378
pixel	-379
ns	-380
▁v	-381
▁and	-382
im	-383
addr	-384
vent	-385
buffer	-386
Info	-387
▁y	-388
its	-389
ann	-390
ID	-391
rror	-392
che	-393
comp	-394
4_	-395
ow	-396
ser	-397
ure	-398
▁k	-399
ight	-400
ream	-401
dev	-402
Quantum	-403
one	-404
▁4	-405
que	-406
TR	-407
▁+=	-408
Ch	-409
TI	-410
sa	-411
yt	-412
De	-413
exception	-414
[0]	-415
rame	-416
▁_	-417
▁error	-418
nd	-419
----	-420
unk	-421
▁se	-422
ytes	-423
und	-424
▁U	-425
CH	-426
CO	-427
ber	-428
TY	-429
count	-430
red	-431
as	-432
▁L	-433
log	-434
AN	-435
▁<<	-436
rb	-437
Type	-438
intf	-439
AG	-440
flags	-441
Error	-442
rent	-443
AD	-444
▁not	-445
MP	-446
for	-447
To	-448
SI	-449
md	-450
ction	-451
ERROR	-452
dr	-453
▁MagickFalse	-454
**	-455
free	-456
▁O	-457
1_	-458
2_	-459
rc	-460
ta	-461
▁:	-462
olor	-463
bo	-464
port	-465
EX	-466
idth	-467
ref	-468
fi	-469
▁num	-470
struct	-471
endif	-472
[1	-473
rom	-474
▁Th	-475
▁ha	-476
▁err	-477
▁0,	-478
UN	-479
so	-480
▁it	-481
PR	-482
pp	-483
St	-484
TYPE	-485
yte	-486
ith	-487
ET	-488
▁pro	-489
ssize	-490
▁offset	-491
1,	-492
▁8	-493
▁so	-494
▁file	-495
VAL	-496
fault	-497
sor	-498
ress	-499
BUG	-500
msg	-501
ret	-502
▁3	-503
ity	-504
user	-505
▁do	-506
▁unsigned	-507
context	-508
Size	-509
urce	-510
▁cur	-511
64	-512
DEBUG	-513
bject	-514
0,	-515
new	-516
ph	-517
string	-518
▁>=	-519
▁mem	-520
ert	-521
entry	-522
lay	-523
-1	-524
ans	-525
▁len	-526
▁value	-527
▁?	-528
state	-529
printf	-530
FI	-531
▁new	-532
Event	-533
ule	-534
annel	-535
mo	-536
CUR	-537
ind	-538
LOG	-539
valid	-540
ression	-541
▁on	-542
CK	-543
rows	-544
start	-545
▁po	-546
▁-1	-547
IS	-548
Mem	-549
▁H	-550
uble	-551
tent	-552
AB	-553
tx	-554
const	-555
Comp	-556
CT	-557
Pro	-558
sed	-559
umns	-560
ssage	-561
▁tr	-562
▁this	-563
NO	-564
ire	-565
▁V	-566
ps	-567
LI	-568
],	-569
▁length	-570
low	-571
Memory	-572
▁status	-573
bl	-574
▁at	-575
act	-576
ive	-577
ReadBlob	-578
Exception	-579
am	-580
▁while	-581
▁par	-582
▁an	-583
status	-584
cl	-585
SOR	-586
LS	-587
uth	-588
▁z	-589
▁get	-590
columns	-591
CURSOR	-592
vice	-593
ING	-594
pace	-595
nc	-596
ange	-597
reg	-598
no	-599
heck	-600
YYCURSOR	-601
Bu	-602
ax	-603
iv	-604
He	-605
ho	-606
height	-607
stream	-608
▁res	-609
pha	-610
▁or	-611
▁Throw	-612
itch	-613
▁sw	-614
▁set	-615
iled	-616
▁Set	-617
ust	-618
word	-619
lename	-620
index	-621
CE	-622
UE	-623
▁q	-624
all	-625
width	-626
▁that	-627
ty	-628
MS	-629
try	-630
irst	-631
pth	-632
▁reg	-633
AS	-634
ED	-635
cket	-636
ac	-637
▁Write	-638
Con	-639
AP	-640
UT	-641
bits	-642
eld	-643
hdr	-644
▁stat	-645
write	-646
lient	-647
hort	-648
▁en	-649
av	-650
cess	-651
ray	-652
ld	-653
ual	-654
▁op	-655
lass	-656
Data	-657
▁le	-658
▁OP	-659
▁end	-660
File	-661
ken	-662
odule	-663
▁read	-664
▁\	-665
iff	-666
quest	-667
reen	-668
▁sk	-669
roup	-670
andle	-671
▁switch	-672
io	-673
▁cont	-674
ial	-675
▁uint	-676
pixels	-677
32_	-678
▁default	-679
Un	-680
[1]	-681
▁with	-682
option	-683
last	-684
tmp	-685
pos	-686
Locale	-687
ZE	-688
lloc	-689
path	-690
':	-691
tp	-692
inter	-693
uint	-694
node	-695
List	-696
stro	-697
ok	-698
db	-699
ined	-700
Log	-701
next	-702
▁buf	-703
cmp	-704
sy	-705
page	-706
SU	-707
Set	-708
▁ps	-709
ses	-710
▁arg	-711
ensor	-712
▁un	-713
DR	-714
▁comp	-715
max	-716
vel	-717
mode	-718
her	-719
56	-720
▁++	-721
ib	-722
acket	-723
ailed	-724
frame	-725
▁static	-726
time	-727
mma	-728
▁bo	-729
▁ne	-730
filename	-731
▁YY	-732
block	-733
▁pixel	-734
are	-735
bit	-736
stroy	-737
Val	-738
fd	-739
▁add	-740
IG	-741
▁WriteBlob	-742
NG	-743
EL	-744
ill	-745
IL	-746
▁Get	-747
ml	-748
bug	-749
20	-750
,&	-751
▁buffer	-752
double	-753
bytes	-754
bs	-755
En	-756
▁**	-757
ore	-758
▁X	-759
TO	-760
▁GF	-761
▁'\	-762
FA	-763
Long	-764
ormat	-765
▁key	-766
SIZE	-767
Header	-768
fig	-769
▁name	-770
▁EX	-771
load	-772
ssert	-773
STR	-774
back	-775
inue	-776
CON	-777
dir	-778
Color	-779
Len	-780
▁type	-781
input	-782
mem	-783
▁ctx	-784
cod	-785
format	-786
idx	-787
ay	-788
ifdef	-789
ALSE	-790
eg	-791
sample	-792
▁continue	-793
lic	-794
alloc	-795
▁header	-796
ail	-797
--------	-798
ample	-799
pre	-800
depth	-801
▁sc	-802
attr	-803
▁sp	-804
Char	-805
sub	-806
cmd	-807
▁count	-808
ated	-809
reate	-810
space	-811
▁from	-812
[2	-813
min	-814
cpy	-815
ilter	-816
match	-817
ndo	-818
▁as	-819
opt	-820
IP	-821
mit	-822
sg	-823
Res	-824
ts	-825
date	-826
MAT	-827
▁free	-828
MAX	-829
SET	-830
..	-831
version	-832
ft	-833
sizeof	-834
lose	-835
ild	-836
INVAL	-837
ATE	-838
▁bytes	-839
init	-840
hape	-841
use	-842
TH	-843
ls	-844
▁max	-845
uld	-846
tra	-847
ome	-848
Module	-849
mb	-850
MO	-851
colormap	-852
RA	-853
▁next	-854
ec	-855
mask	-856
ping	-857
Extent	-858
ature	-859
▁have	-860
+=	-861
▁check	-862
ign	-863
▁us	-864
desc	-865
▁are	-866
2,	-867
▁J	-868
ENT	-869
****	-870
RO	-871
om	-872
▁input	-873
TE	-874
▁start	-875
▁ph	-876
KE	-877
opy	-878
tag	-879
pi	-880
dd	-881
▁color	-882
mng	-883
SSL	-884
ci	-885
▁>>	-886
Option	-887
quantum	-888
ource	-889
mmand	-890
10	-891
▁number	-892
▁mrb	-893
upt	-894
▁1,	-895
chunk	-896
base	-897
Tr	-898
▁gf	-899
▁16	-900
ister	-901
GetMagick	-902
ded	-903
ument	-904
▁up	-905
IF	-906
RES	-907
ACK	-908
Destroy	-909
▁pre	-910
ute	-911
+1	-912
▁If	-913
▁can	-914
GetMagickModule	-915
IFF	-916
number	-917
PRINT	-918
own	-919
ard	-920
lement	-921
ution	-922
▁|=	-923
ish	-924
▁false	-925
ometry	-926
VER	-927
table	-928
▁info	-929
▁In	-930
Path	-931
oder	-932
IC	-933
▁FALSE	-934
nect	-935
lean	-936
▁id	-937
IO	-938
▁code	-939
ield	-940
ush	-941
ab	-942
▁pr	-943
ull	-944
FL	-945
▁assert	-946
ary	-947
pend	-948
Par	-949
▁tmp	-950
QU	-951
▁no	-952
EXT	-953
dec	-954
▁ND	-955
ator	-956
iter	-957
ION	-958
UM	-959
▁"%	-960
HE	-961
colors	-962
fs	-963
url	-964
0'	-965
ORT	-966
.0	-967
AV	-968
OL	-969
fe	-970
▁line	-971
▁5	-972
orr	-973
ell	-974
▁long	-975
▁state	-976
▁he	-977
check	-978
▁cp	-979
US	-980
▁Image	-981
skb	-982
Coder	-983
ork	-984
0000	-985
ams	-986
Offset	-987
Buffer	-988
LEN	-989
env	-990
annels	-991
main	-992
OK	-993
cpu	-994
▁AV	-995
Reader	-996
tiff	-997
▁sy	-998
stack	-999
▁Log	-1000
ers	-1001
point	-1002
▁void	-1003
Po	-1004
ctor	-1005
parse	-1006
token	-1007
ump	-1008
▁def	-1009
MagickEvent	-1010
dow	-1011
ance	-1012
raw	-1013
perty	-1014
net	-1015
loat	-1016
orrupt	-1017
upport	-1018
▁TR	-1019
alpha	-1020
NULL	-1021
ep	-1022
HDR	-1023
Pixels	-1024
ave	-1025
fl	-1026
ast	-1027
5_	-1028
Max	-1029
flag	-1030
pc	-1031
vsp	-1032
ify	-1033
OF	-1034
▁chunk	-1035
box	-1036
Value	-1037
ReaderException	-1038
Bo	-1039
CM	-1040
▁result	-1041
▁output	-1042
▁6	-1043
obj	-1044
yyvsp	-1045
SL	-1046
unc	-1047
SC	-1048
lin	-1049
▁YYDEBUG	-1050
ont	-1051
Short	-1052
ATA	-1053
group	-1054
src	-1055
BIT	-1056
▁We	-1057
▁packet	-1058
12	-1059
TAG	-1060
atch	-1061
▁lo	-1062
array	-1063
dp	-1064
==	-1065
▁true	-1066
result	-1067
sit	-1068
TIFF	-1069
cc	-1070
ImagePro	-1071
quire	-1072
ORD	-1073
uto	-1074
arget	-1075
codec	-1076
▁LogMagickEvent	-1077
Compare	-1078
ply	-1079
packet	-1080
Scale	-1081
olution	-1082
ILE	-1083
lan	-1084
sb	-1085
▁string	-1086
▁log	-1087
▁The	-1088
ug	-1089
▁Re	-1090
SY	-1091
Name	-1092
[3	-1093
▁ReadBlob	-1094
elin	-1095
off	-1096
Int	-1097
DI	-1098
local	-1099
▁__	-1100
▁gen	-1101
▁ext	-1102
[2]	-1103
mt	-1104
args	-1105
root	-1106
Ar	-1107
Num	-1108
quish	-1109
elinquish	-1110
py	-1111
▁message	-1112
CC	-1113
▁yych	-1114
Length	-1115
session	-1116
win	-1117
▁",	-1118
vm	-1119
Byte	-1120
CODE	-1121
SP	-1122
▁addr	-1123
mg	-1124
LAB	-1125
▁RE	-1126
rypt	-1127
dis	-1128
green	-1129
▁ip	-1130
oc	-1131
▁te	-1132
Is	-1133
ies	-1134
SH	-1135
XX	-1136
mpt	-1137
▁av	-1138
ension	-1139
blue	-1140
kt	-1141
ting	-1142
ript	-1143
"%	-1144
object	-1145
ces	-1146
entic	-1147
CoderEvent	-1148
▁first	-1149
imit	-1150
▁TRUE	-1151
vio	-1152
rect	-1153
device	-1154
▁flags	-1155
▁TIFF	-1156
sn	-1157
fp	-1158
ASS	-1159
ll	-1160
old	-1161
pec	-1162
8_	-1163
rag	-1164
KEY	-1165
arch	-1166
uthentic	-1167
3_	-1168
host	-1169
geometry	-1170
▁register	-1171
GB	-1172
enc	-1173
▁index	-1174
ound	-1175
tile	-1176
client	-1177
▁context	-1178
=%	-1179
mrb	-1180
▁memcpy	-1181
55	-1182
▁has	-1183
com	-1184
ifi	-1185
Index	-1186
meth	-1187
▁opt	-1188
▁by	-1189
▁li	-1190
rec	-1191
TION	-1192
Corrupt	-1193
vert	-1194
▁Z	-1195
▁bit	-1196
req	-1197
▁SetPixel	-1198
tl	-1199
▁dev	-1200
level	-1201
▁Format	-1202
class	-1203
cquire	-1204
debug	-1205
MagickMemory	-1206
[0].	-1207
Op	-1208
▁pa	-1209
compression	-1210
GetPixel	-1211
output	-1212
▁rc	-1213
DO	-1214
▁use	-1215
KER	-1216
▁byte	-1217
02	-1218
Sy	-1219
DATA	-1220
▁sub	-1221
ToQuantum	-1222
lice	-1223
cted	-1224
ain	-1225
▁mng	-1226
URE	-1227
▁need	-1228
Failed	-1229
▁old	-1230
nown	-1231
GET	-1232
64_	-1233
cept	-1234
▁user	-1235
▁Ex	-1236
fer	-1237
Id	-1238
MEM	-1239
▁mo	-1240
▁FT	-1241
▁std	-1242
ACE	-1243
trans	-1244
▁block	-1245
ient	-1246
ote	-1247
ImageError	-1248
tv	-1249
PF	-1250
▁frame	-1251
.20	-1252
source	-1253
stat	-1254
irect	-1255
▁list	-1256
std	-1257
copy	-1258
ctions	-1259
▁-=	-1260
▁Relinquish	-1261
gra	-1262
▁option	-1263
▁one	-1264
▁pos	-1265
message	-1266
priv	-1267
▁bool	-1268
move	-1269
lf	-1270
uid	-1271
UP	-1272
▁but	-1273
PRO	-1274
▁tag	-1275
ffff	-1276
ASE	-1277
otal	-1278
from	-1279
filter	-1280
▁PH	-1281
ITE	-1282
17	-1283
<<	-1284
\"	-1285
exp	-1286
FO	-1287
var	-1288
server	-1289
DestroyImage	-1290
ging	-1291
pack	-1292
coding	-1293
irt	-1294
ek	-1295
lace	-1296
▁SSL	-1297
▁fprintf	-1298
▁only	-1299
▁current	-1300
CL	-1301
▁cmd	-1302
Resource	-1303
hash	-1304
Ptr	-1305
parent	-1306
=1	-1307
png	-1308
cs	-1309
Next	-1310
6_	-1311
VP	-1312
▁off	-1313
LocaleCompare	-1314
▁entry	-1315
options	-1316
ero	-1317
▁all	-1318
▁col	-1319
CHE	-1320
tern	-1321
ql	-1322
sl	-1323
FOR	-1324
,0,	-1325
shape	-1326
▁xml	-1327
request	-1328
AME	-1329
LSB	-1330
ie	-1331
▁last	-1332
current	-1333
Tra	-1334
refix	-1335
NUM	-1336
queue	-1337
▁ssize	-1338
uff	-1339
AM	-1340
[3]	-1341
▁msg	-1342
FLAG	-1343
▁ping	-1344
GE	-1345
Class	-1346
▁time	-1347
be	-1348
▁FILE	-1349
▁any	-1350
ameter	-1351
BO	-1352
chro	-1353
TT	-1354
RB	-1355
rk	-1356
SK	-1357
▁FormatLocale	-1358
ide	-1359
000	-1360
arn	-1361
PP	-1362
▁php	-1363
▁node	-1364
REG	-1365
cip	-1366
▁WriteBlobString	-1367
50	-1368
▁"\	-1369
▁will	-1370
sock	-1371
Text	-1372
▁defined	-1373
OM	-1374
▁K	-1375
▁si	-1376
True	-1377
ific	-1378
nection	-1379
▁val	-1380
df	-1381
mod	-1382
▁table	-1383
ML	-1384
ache	-1385
head	-1386
cb	-1387
PEG	-1388
IB	-1389
State	-1390
▁short	-1391
AX	-1392
▁vi	-1393
UINT	-1394
append	-1395
▁[	-1396
seq	-1397
work	-1398
order	-1399
values	-1400
▁failed	-1401
▁ser	-1402
CESS	-1403
▁sample	-1404
▁min	-1405
dst	-1406
scan	-1407
▁'\0'	-1408
',	-1409
4,	-1410
MT	-1411
byte	-1412
NE	-1413
RGB	-1414
ONE	-1415
top	-1416
gress	-1417
ABLE	-1418
ict	-1419
▁must	-1420
fb	-1421
rt	-1422
MSB	-1423
sition	-1424
config	-1425
//	-1426
NT	-1427
face	-1428
ang	-1429
Compression	-1430
ONG	-1431
other	-1432
▁cpu	-1433
MagickFalse	-1434
LIB	-1435
temp	-1436
handle	-1437
▁stream	-1438
▁auto	-1439
resolution	-1440
CP	-1441
*/	-1442
orage	-1443
Add	-1444
blk	-1445
▁mode	-1446
SR	-1447
QUI	-1448
▁object	-1449
▁7	-1450
▁copy	-1451
▁match	-1452
conn	-1453
▁cli	-1454
coder	-1455
__	-1456
▁skip	-1457
pri	-1458
CHECK	-1459
Al	-1460
▁tra	-1461
buff	-1462
PathExtent	-1463
hould	-1464
lear	-1465
Authentic	-1466
▁pixels	-1467
PAR	-1468
trib	-1469
cast	-1470
INVALID	-1471
▁act	-1472
▁skb	-1473
not	-1474
tain	-1475
▁base	-1476
▁app	-1477
andl	-1478
params	-1479
▁request	-1480
mag	-1481
▁*++	-1482
field	-1483
▁page	-1484
BITS	-1485
Limit	-1486
Count	-1487
]=	-1488
upported	-1489
EINVAL	-1490
OB	-1491
ne	-1492
ost	-1493
FILE	-1494
parser	-1495
SA	-1496
sec	-1497
▁Read	-1498
STRING	-1499
auth	-1500
Invalid	-1501
left	-1502
▁when	-1503
▁MAT	-1504
fter	-1505
cf	-1506
▁BPF	-1507
▁alloc	-1508
Alloc	-1509
http	-1510
strcmp	-1511
END	-1512
▁This	-1513
▁32	-1514
Format	-1515
sv	-1516
ries	-1517
signature	-1518
unds	-1519
vious	-1520
defined	-1521
11	-1522
ized	-1523
MagickPathExtent	-1524
cap	-1525
igin	-1526
define	-1527
▁St	-1528
regs	-1529
wd	-1530
onse	-1531
long	-1532
Channels	-1533
stderr	-1534
>>	-1535
At	-1536
PO	-1537
itial	-1538
▁there	-1539
profile	-1540
rop	-1541
▁ID	-1542
this	-1543
unction	-1544
▁format	-1545
ENO	-1546
▁address	-1547
16_	-1548
▁bmp	-1549
ren	-1550
RESS	-1551
coded	-1552
first	-1553
SN	-1554
▁'/	-1555
sz	-1556
print	-1557
ACT	-1558
let	-1559
PI	-1560
▁pi	-1561
▁memset	-1562
utex	-1563
▁fail	-1564
tptr	-1565
▁dis	-1566
▁sh	-1567
▁Con	-1568
ULT	-1569
play	-1570
tree	-1571
mary	-1572
annot	-1573
rl	-1574
▁Un	-1575
irtual	-1576
▁12	-1577
iz	-1578
▁10	-1579
cursor	-1580
bi	-1581
round	-1582
Object	-1583
----------------	-1584
images	-1585
sections	-1586
can	-1587
rm	-1588
▁should	-1589
uc	-1590
address	-1591
dc	-1592
keyword	-1593
Parse	-1594
ctxt	-1595
entries	-1596
▁'/'	-1597
Se	-1598
scen	-1599
▁width	-1600
lue	-1601
pected	-1602
bmp	-1603
COL	-1604
▁here	-1605
Sign	-1606
▁path	-1607
▁port	-1608
tric	-1609
REQUI	-1610
▁call	-1611
lab	-1612
▁quantum	-1613
ift	-1614
ugh	-1615
matic	-1616
method	-1617
."	-1618
flow	-1619
form	-1620
event	-1621
********	-1622
inode	-1623
au	-1624
lobal	-1625
son	-1626
qlite	-1627
CR	-1628
rp	-1629
LOCK	-1630
▁ptr	-1631
▁config	-1632
mm	-1633
apt	-1634
BG	-1635
CCESS	-1636
▁over	-1637
slice	-1638
▁De	-1639
AND	-1640
▁sn	-1641
lat	-1642
[4	-1643
▁qu	-1644
cond	-1645
46	-1646
dbg	-1647
pic	-1648
layer	-1649
Tag	-1650
▁Q	-1651
CS	-1652
rd	-1653
WORD	-1654
link	-1655
▁temp	-1656
Arg	-1657
▁pri	-1658
channel	-1659
Packet	-1660
3,	-1661
close	-1662
▁was	-1663
▁row	-1664
cnt	-1665
Code	-1666
COMP	-1667
▁obj	-1668
LOC	-1669
iss	-1670
TER	-1671
malloc	-1672
find	-1673
ALL	-1674
ener	-1675
Alpha	-1676
ERT	-1677
Field	-1678
onent	-1679
▁inter	-1680
AuthenticPixels	-1681
hl	-1682
ence	-1683
pid	-1684
pkt	-1685
VE	-1686
amp	-1687
adata	-1688
scale	-1689
has	-1690
AVE	-1691
▁ac	-1692
INFO	-1693
READ	-1694
pool	-1695
logging	-1696
float	-1697
Sample	-1698
rol	-1699
PAT	-1700
NAME	-1701
Of	-1702
clu	-1703
▁found	-1704
"--	-1705
create	-1706
▁field	-1707
URL	-1708
[-1	-1709
NS	-1710
MODE	-1711
element	-1712
ResourceLimit	-1713
▁now	-1714
8,	-1715
IM	-1716
▁NO	-1717
exif	-1718
▁back	-1719
dup	-1720
ger	-1721
Frame	-1722
FAIL	-1723
▁MATLAB	-1724
▁memory	-1725
tensor	-1726
▁per	-1727
WAR	-1728
▁bits	-1729
▁strlen	-1730
EE	-1731
▁tok	-1732
untime	-1733
▁valid	-1734
REQUIRES	-1735
,1,	-1736
▁IP	-1737
ameters	-1738
▁actual	-1739
item	-1740
▁sqlite	-1741
AGE	-1742
▁usb	-1743
param	-1744
40	-1745
Buf	-1746
leanup	-1747
Allocation	-1748
▁src	-1749
Per	-1750
▁send	-1751
primary	-1752
PL	-1753
cache	-1754
▁point	-1755
Th	-1756
▁Tensor	-1757
unlock	-1758
ved	-1759
MemoryAllocation	-1760
attern	-1761
▁ST	-1762
tem	-1763
open	-1764
maticity	-1765
fore	-1766
▁client	-1767
ey	-1768
▁exp	-1769
▁don	-1770
▁errors	-1771
FORMAT	-1772
send	-1773
PER	-1774
Context	-1775
del	-1776
rit	-1777
func	-1778
save	-1779
hs	-1780
ery	-1781
Mode	-1782
-+	-1783
▁net	-1784
▁CASE	-1785
ND	-1786
sum	-1787
▁try	-1788
nr	-1789
ich	-1790
GF	-1791
SUCCESS	-1792
Status	-1793
▁zend	-1794
Virtual	-1795
dio	-1796
ely	-1797
▁cl	-1798
▁sock	-1799
MAP	-1800
▁9	-1801
▁~	-1802
lete	-1803
KERN	-1804
ressed	-1805
▁handle	-1806
Imp	-1807
rep	-1808
abled	-1809
jo	-1810
store	-1811
▁may	-1812
▁map	-1813
ume	-1814
unknown	-1815
sha	-1816
Table	-1817
TextExtent	-1818
ground	-1819
VI	-1820
MIN	-1821
andler	-1822
▁ro	-1823
▁done	-1824
target	-1825
FS	-1826
▁pe	-1827
FAULT	-1828
label	-1829
▁server	-1830
▁non	-1831
chromaticity	-1832
14	-1833
▁CON	-1834
▁part	-1835
Colorspace	-1836
AF	-1837
acc	-1838
led	-1839
▁ImageInfo	-1840
EC	-1841
amma	-1842
▁LOG	-1843
metric	-1844
run	-1845
Write	-1846
▁ad	-1847
YTE	-1848
▁spec	-1849
▁desc	-1850
lyph	-1851
MAR	-1852
]->	-1853
lease	-1854
-+-+	-1855
yyval	-1856
TTP	-1857
olean	-1858
command	-1859
default	-1860
...	-1861
dian	-1862
essage	-1863
ake	-1864
licit	-1865
▁trans	-1866
▁height	-1867
▁PNG	-1868
▁charact	-1869
MaxTextExtent	-1870
SION	-1871
▁img	-1872
,"%	-1873
part	-1874
ueue	-1875
▁ERROR	-1876
clone	-1877
▁then	-1878
▁rec	-1879
TIME	-1880
Stream	-1881
▁reply	-1882
RESSION	-1883
ach	-1884
dim	-1885
▁Check	-1886
InList	-1887
▁after	-1888
++]	-1889
▁Quantum	-1890
_32	-1891
ImageInList	-1892
stance	-1893
imp	-1894
▁US	-1895
▁used	-1896
:"	-1897
irectory	-1898
riptor	-1899
VM	-1900
xff	-1901
utes	-1902
indow	-1903
▁DEBUG	-1904
ImageProperty	-1905
CharToQuantum	-1906
CI	-1907
OffsetType	-1908
ait	-1909
gest	-1910
End	-1911
ga	-1912
▁process	-1913
lib	-1914
▁--	-1915
▁does	-1916
nal	-1917
ssl	-1918
mount	-1919
storage	-1920
ody	-1921
resent	-1922
Queue	-1923
frag	-1924
TRACT	-1925
▁dst	-1926
MASK	-1927
Do	-1928
04	-1929
proc	-1930
accept	-1931
mac	-1932
update	-1933
▁IS	-1934
Load	-1935
itmap	-1936
ready	-1937
▁Co	-1938
▁scan	-1939
▁run	-1940
▁other	-1941
▁di	-1942
▁version	-1943
▁ses	-1944
lit	-1945
Endian	-1946
inal	-1947
▁tile	-1948
24	-1949
▁exception	-1950
stem	-1951
proto	-1952
udo	-1953
ai	-1954
resp	-1955
seg	-1956
HECK	-1957
▁CHECK	-1958
▁NEXT	-1959
RAY	-1960
▁pc	-1961
▁group	-1962
▁io	-1963
view	-1964
WARN	-1965
INTER	-1966
▁write	-1967
Sync	-1968
▁png	-1969
Pos	-1970
▁parse	-1971
▁device	-1972
▁1]	-1973
test	-1974
ified	-1975
PD	-1976
▁stack	-1977
▁resp	-1978
▁var	-1979
Acquire	-1980
IGN	-1981
cat	-1982
▁session	-1983
ker	-1984
60	-1985
▁ht	-1986
arning	-1987
[-1].	-1988
ition	-1989
▁exit	-1990
▁which	-1991
MSG	-1992
argv	-1993
range	-1994
MD	-1995
call	-1996
▁GST	-1997
dest	-1998
▁krb	-1999
direct	-2000
magick	-2001
sid	-2002
strnc	-2003
▁mod	-2004
▁dir	-2005
EAT	-2006
crypt	-2007
limit	-2008
509	-2009
From	-2010
STAT	-2011
qual	-2012
af	-2013
Vi	-2014
pass	-2015
▁args	-2016
▁print	-2017
Met	-2018
ique	-2019
ops	-2020
iler	-2021
qui	-2022
ations	-2023
change	-2024
PH	-2025
_16	-2026
wh	-2027
Box	-2028
cipher	-2029
▁yacc	-2030
my	-2031
▁mp	-2032
BYTE	-2033
mov	-2034
▁ver	-2035
pay	-2036
cont	-2037
we	-2038
CHAR	-2039
okie	-2040
FT	-2041
TS	-2042
ise	-2043
QL	-2044
▁too	-2045
Block	-2046
apter	-2047
▁fd	-2048
payload	-2049
▁MO	-2050
peg	-2051
Map	-2052
prev	-2053
ntax	-2054
▁mask	-2055
Red	-2056
chr	-2057
attrib	-2058
prefix	-2059
ass	-2060
dpx	-2061
▁Acquire	-2062
MagickTrue	-2063
▁lin	-2064
▁total	-2065
▁source	-2066
DestroyImageList	-2067
tings	-2068
Key	-2069
lip	-2070
▁Copy	-2071
utf	-2072
HEAD	-2073
ched	-2074
▁LY	-2075
anner	-2076
Message	-2077
bounds	-2078
sr	-2079
pb	-2080
bin	-2081
flat	-2082
lette	-2083
▁retval	-2084
leg	-2085
Line	-2086
man	-2087
▁BN	-2088
NOT	-2089
▁conn	-2090
ped	-2091
lu	-2092
Cur	-2093
lnum	-2094
mpty	-2095
maining	-2096
avctx	-2097
▁filter	-2098
cause	-2099
used	-2100
13	-2101
15	-2102
▁.	-2103
▁regs	-2104
AIL	-2105
decode	-2106
▁null	-2107
pd	-2108
▁fi	-2109
NONE	-2110
ui	-2111
AST	-2112
cal	-2113
utls	-2114
tract	-2115
No	-2116
sig	-2117
▁than	-2118
▁create	-2119
18	-2120
ARG	-2121
ian	-2122
▁VFF	-2123
sert	-2124
WR	-2125
tribute	-2126
cert	-2127
Time	-2128
CHAN	-2129
6,	-2130
OUT	-2131
igh	-2132
lect	-2133
1:	-2134
OBJ	-2135
▁change	-2136
aw	-2137
headers	-2138
▁command	-2139
▁SC	-2140
gb	-2141
▁dp	-2142
▁rep	-2143
Input	-2144
sible	-2145
return	-2146
dims	-2147
URN	-2148
[0],	-2149
short	-2150
▁parser	-2151
Le	-2152
beg	-2153
▁proto	-2154
▁into	-2155
'\	-2156
memcmp	-2157
CAP	-2158
pac	-2159
mark	-2160
content	-2161
1.	-2162
Ad	-2163
▁channel	-2164
cin	-2165
window	-2166
LENG	-2167
▁MAX	-2168
ical	-2169
Out	-2170
ATION	-2171
▁top	-2172
samples	-2173
usb	-2174
Cache	-2175
XXX	-2176
▁hdr	-2177
▁already	-2178
INE	-2179
clude	-2180
eff	-2181
▁text	-2182
▁allow	-2183
▁host	-2184
Argument	-2185
OPT	-2186
rap	-2187
way	-2188
▁invalid	-2189
cfg	-2190
os	-2191
pol	-2192
Trans	-2193
▁es	-2194
Reg	-2195
nodes	-2196
9,	-2197
▁WriteBlobMSB	-2198
GetPixelChannels	-2199
MagickOffsetType	-2200
Up	-2201
BI	-2202
By	-2203
FIG	-2204
ative	-2205
sw	-2206
ceiv	-2207
bp	-2208
atal	-2209
▁open	-2210
▁local	-2211
process	-2212
Client	-2213
ImageHeader	-2214
ny	-2215
▁because	-2216
core	-2217
▁snprintf	-2218
ask	-2219
▁red	-2220
▁req	-2221
▁double	-2222
expected	-2223
ssh	-2224
INIT	-2225
▁pass	-2226
▁EXTRACT	-2227
fc	-2228
2.	-2229
DP	-2230
ux	-2231
▁ign	-2232
FLO	-2233
5,	-2234
roper	-2235
Sub	-2236
stamp	-2237
Improper	-2238
▁go	-2239
View	-2240
den	-2241
pu	-2242
oper	-2243
ther	-2244
▁more	-2245
Col	-2246
PRE	-2247
okup	-2248
ctl	-2249
▁make	-2250
quence	-2251
ches	-2252
▁dest	-2253
QuantumTo	-2254
▁level	-2255
Chunk	-2256
[4]	-2257
br	-2258
eded	-2259
here	-2260
▁sma	-2261
ES	-2262
ident	-2263
LENGTH	-2264
▁options	-2265
80	-2266
TURN	-2267
delay	-2268
▁values	-2269
cg	-2270
Inter	-2271
img	-2272
nel	-2273
IX	-2274
,'	-2275
cd	-2276
Handle	-2277
lot	-2278
▁find	-2279
▁debug	-2280
SetImagePro	-2281
sps	-2282
lack	-2283
imer	-2284
extent	-2285
CONT	-2286
reply	-2287
gen	-2288
Number	-2289
GI	-2290
ceived	-2291
▁target	-2292
▁connection	-2293
▁ssh	-2294
TLS	-2295
fil	-2296
pen	-2297
SetImageProgress	-2298
▁24	-2299
reser	-2300
▁just	-2301
_.	-2302
▁Str	-2303
zip	-2304
loop	-2305
-2	-2306
scene	-2307
BUF	-2308
Blue	-2309
errno	-2310
tom	-2311
LONG	-2312
VERSION	-2313
prop	-2314
found	-2315
ENOMEM	-2316
CTION	-2317
real	-2318
dy	-2319
child	-2320
card	-2321
==0	-2322
Node	-2323
AK	-2324
▁ass	-2325
▁prev	-2326
▁before	-2327
rx	-2328
uration	-2329
▁GetPixel	-2330
RAW	-2331
▁save	-2332
issing	-2333
global	-2334
Row	-2335
▁OK	-2336
][	-2337
ten	-2338
pix	-2339
REAM	-2340
atum	-2341
METR	-2342
▁colors	-2343
▁AP	-2344
seek	-2345
MATLAB	-2346
▁printf	-2347
3:	-2348
Not	-2349
ifier	-2350
SO	-2351
▁LIB	-2352
▁opj	-2353
Tab	-2354
ates	-2355
▁same	-2356
▁tp	-2357
Signature	-2358
SUPP	-2359
cogn	-2360
▁&=	-2361
VALUE	-2362
xt	-2363
_->	-2364
js	-2365
▁OF	-2366
ds	-2367
xy	-2368
▁ssl	-2369
fname	-2370
Green	-2371
,0	-2372
esc	-2373
otometric	-2374
mal	-2375
▁directory	-2376
peer	-2377
sing	-2378
BN	-2379
▁loop	-2380
▁alpha	-2381
viff	-2382
mi	-2383
BLOCK	-2384
invalid	-2385
0.	-2386
have	-2387
comment	-2388
▁auth	-2389
DIS	-2390
▁FL	-2391
<<8	-2392
▁tv	-2393
ription	-2394
JS	-2395
track	-2396
01	-2397
plan	-2398
arge	-2399
AUT	-2400
Open	-2401
sync	-2402
▁oper	-2403
assert	-2404
FMT	-2405
align	-2406
liver	-2407
Double	-2408
module	-2409
▁im	-2410
▁some	-2411
CLASS	-2412
172	-2413
USE	-2414
HEADER	-2415
7,	-2416
DEF	-2417
term	-2418
LOAD	-2419
medi	-2420
paque	-2421
Ref	-2422
▁'%	-2423
.\	-2424
AY	-2425
▁No	-2426
ultip	-2427
inc	-2428
New	-2429
push	-2430
▁range	-2431
MARKER	-2432
PACK	-2433
Boolean	-2434
itialize	-2435
su	-2436
Flags	-2437
Command	-2438
hw	-2439
ECT	-2440
▁depth	-2441
ii	-2442
2:	-2443
▁contain	-2444
strncmp	-2445
PT	-2446
tail	-2447
STATE	-2448
rence	-2449
InvalidArgument	-2450
clear	-2451
compressed	-2452
LY	-2453
CTX	-2454
doc	-2455
licy	-2456
lines	-2457
lv	-2458
OFF	-2459
▁param	-2460
SUB	-2461
▁bad	-2462
strlen	-2463
Create	-2464
+2	-2465
blocks	-2466
ReadBlobLSB	-2467
OTO	-2468
▁256	-2469
▁idx	-2470
▁zero	-2471
▁inode	-2472
ias	-2473
METRIC	-2474
seudo	-2475
▁PR	-2476
▁close	-2477
509_	-2478
phic	-2479
RC	-2480
▁real	-2481
active	-2482
CORE	-2483
▁-1,	-2484
:%	-2485
meta	-2486
zero	-2487
▁pix	-2488
▁root	-2489
exit	-2490
▁%.20	-2491
MIT	-2492
▁ASN	-2493
rate	-2494
","	-2495
▁','	-2496
COLOR	-2497
▁test	-2498
thread	-2499
▁NUL	-2500
WN	-2501
▁priv	-2502
iteral	-2503
archive	-2504
previous	-2505
pose	-2506
ipher	-2507
NC	-2508
blob	-2509
▁EC	-2510
▁ag	-2511
dices	-2512
total	-2513
origin	-2514
msl	-2515
TIFFTAG	-2516
WARNING	-2517
▁ab	-2518
JPEG	-2519
▁update	-2520
dig	-2521
tok	-2522
▁'@	-2523
sche	-2524
formation	-2525
ScaleQuantumTo	-2526
ndef	-2527
Core	-2528
kely	-2529
tadata	-2530
▁mat	-2531
pl	-2532
ctb	-2533
imum	-2534
▁space	-2535
Ver	-2536
▁params	-2537
rough	-2538
shift	-2539
MPLE	-2540
pacity	-2541
▁ter	-2542
▁extra	-2543
expression	-2544
▁yyaccept	-2545
8:	-2546
rv	-2547
cm	-2548
only	-2549
ALLOC	-2550
FIX	-2551
irq	-2552
▁CO	-2553
case	-2554
skip	-2555
cognized	-2556
less	-2557
▁imgdata	-2558
tlv	-2559
▁SO	-2560
lable	-2561
▁element	-2562
UNT	-2563
EFAULT	-2564
LIST	-2565
phar	-2566
empt	-2567
Trait	-2568
tcp	-2569
GN	-2570
PNG	-2571
▁DBG	-2572
ITY	-2573
inary	-2574
▁been	-2575
▁spin	-2576
▁kfree	-2577
▁2,	-2578
mmar	-2579
Tensor	-2580
property	-2581
eb	-2582
alg	-2583
▁GFP	-2584
▁prefix	-2585
ASN	-2586
magn	-2587
empty	-2588
▁'@'	-2589
OTOMETRIC	-2590
dict	-2591
lash	-2592
LL	-2593
MLS	-2594
trg	-2595
-'	-2596
▁jas	-2597
SD	-2598
++=	-2599
▁left	-2600
Device	-2601
ste	-2602
▁String	-2603
▁my	-2604
▁ctxt	-2605
▁response	-2606
▁hex	-2607
pw	-2608
script	-2609
ientation	-2610
REE	-2611
TYP	-2612
tls	-2613
ands	-2614
dx	-2615
DIR	-2616
Min	-2617
ABORT	-2618
STREAM	-2619
PG	-2620
body	-2621
grammar	-2622
YYMARKER	-2623
xffff	-2624
▁tree	-2625
▁support	-2626
,4	-2627
▁ERR	-2628
Request	-2629
channels	-2630
For	-2631
UNK	-2632
▁character	-2633
PUT	-2634
fli	-2635
OptionError	-2636
cel	-2637
▁14	-2638
SRMLS	-2639
TRACE	-2640
Rec	-2641
gid	-2642
exec	-2643
recognized	-2644
BE	-2645
fmt	-2646
OD	-2647
▁want	-2648
bv	-2649
▁seg	-2650
▁word	-2651
vector	-2652
SHA	-2653
non	-2654
ifndef	-2655
▁Undefined	-2656
dump	-2657
▁pad	-2658
Channel	-2659
tm	-2660
Shape	-2661
endian	-2662
▁cleanup	-2663
Expr	-2664
▁pid	-2665
Start	-2666
yle	-2667
pref	-2668
:16	-2669
▁ld	-2670
etch	-2671
tlen	-2672
▁GET	-2673
▁exe	-2674
:1646	-2675
AFNUM	-2676
ASH	-2677
▁'`	-2678
▁4,	-2679
adding	-2680
▁event	-2681
asi	-2682
▁For	-2683
▁ref	-2684
▁empty	-2685
Element	-2686
▁array	-2687
▁SET	-2688
ily	-2689
▁FAIL	-2690
MOD	-2691
OPJ	-2692
REQ	-2693
VEL	-2694
▁PHP	-2695
▁using	-2696
signal	-2697
LV	-2698
gf	-2699
vec	-2700
▁MS	-2701
tran	-2702
▁put	-2703
Token	-2704
trait	-2705
▁'`'	-2706
Update	-2707
BooleanType	-2708
Lay	-2709
NextImageInList	-2710
ADD	-2711
now	-2712
fail	-2713
FALSE	-2714
destroy	-2715
▁filename	-2716
▁function	-2717
pg	-2718
tt	-2719
gamma	-2720
ImageTag	-2721
▁Convert	-2722
ice	-2723
bad	-2724
▁ent	-2725
FAILURE	-2726
Chn	-2727
Doc	-2728
EEK	-2729
Range	-2730
▁layer	-2731
PixelTrait	-2732
4:	-2733
▁ci	-2734
mment	-2735
hel	-2736
HTTP	-2737
compress	-2738
release	-2739
bn	-2740
▁ON	-2741
First	-2742
AIN	-2743
▁'.	-2744
▁geometry	-2745
EV	-2746
Item	-2747
▁profile	-2748
ASM	-2749
ures	-2750
QuantumMemory	-2751
types	-2752
▁'-'	-2753
Array	-2754
KERNEL	-2755
▁colormap	-2756
background	-2757
MENT	-2758
arse	-2759
▁phar	-2760
network	-2761
xf	-2762
PATH	-2763
▁token	-2764
with	-2765
Default	-2766
EP	-2767
▁work	-2768
xx	-2769
HER	-2770
▁ident	-2771
SUPPORT	-2772
ilder	-2773
location	-2774
▁':	-2775
▁Comp	-2776
▁Alloc	-2777
eometry	-2778
StringInfo	-2779
▁CL	-2780
tick	-2781
▁box	-2782
colorspace	-2783
scanner	-2784
▁argument	-2785
ward	-2786
reset	-2787
▁flag	-2788
Debug	-2789
td	-2790
sport	-2791
scii	-2792
▁TSRMLS	-2793
▁nullptr	-2794
sys	-2795
Unrecognized	-2796
UB	-2797
conv	-2798
mote	-2799
ating	-2800
stats	-2801
[5	-2802
pad	-2803
strdup	-2804
▁YYABORT	-2805
08	-2806
CB	-2807
Page	-2808
late	-2809
pf	-2810
Bytes	-2811
▁iter	-2812
dbgmsg	-2813
ince	-2814
sity	-2815
▁rfb	-2816
photometric	-2817
MagickString	-2818
mbol	-2819
LEVEL	-2820
vance	-2821
ImageInfo	-2822
mon	-2823
100	-2824
▁tcp	-2825
FFER	-2826
▁tensor	-2827
big	-2828
eger	-2829
known	-2830
Profile	-2831
bd	-2832
[1].	-2833
cx	-2834
CMD	-2835
Desc	-2836
nl	-2837
qp	-2838
164	-2839
ink	-2840
MSLE	-2841
tab	-2842
ee	-2843
aff	-2844
▁ev	-2845
[]	-2846
hd	-2847
Dis	-2848
pert	-2849
roll	-2850
SER	-2851
extra	-2852
▁allocate	-2853
ank	-2854
▁track	-2855
xception	-2856
96	-2857
RAME	-2858
Buff	-2859
FLOAT	-2860
TRUE	-2861
▁env	-2862
likely	-2863
▁dpx	-2864
▁peer	-2865
▁ThrowMSLE	-2866
by	-2867
dn	-2868
▁EVP	-2869
▁EXIF	-2870
▁exist	-2871
ART	-2872
ace	-2873
▁attr	-2874
▁UN	-2875
Struct	-2876
GP	-2877
PROTO	-2878
domain	-2879
hex	-2880
▁LD	-2881
spec	-2882
Check	-2883
▁frag	-2884
▁mark	-2885
mplete	-2886
▁Pixel	-2887
COM	-2888
IME	-2889
▁64	-2890
▁Allocate	-2891
▁compression	-2892
CLI	-2893
urb	-2894
ixed	-2895
iable	-2896
failed	-2897
IVE	-2898
sun	-2899
ATTR	-2900
film	-2901
curity	-2902
MX	-2903
NEW	-2904
cope	-2905
▁'.'	-2906
encoding	-2907
FUN	-2908
isom	-2909
Images	-2910
layout	-2911
remaining	-2912
▁fol	-2913
ctrl	-2914
self	-2915
▁magn	-2916
GetField	-2917
Ser	-2918
▁MRB	-2919
▁our	-2920
▁sys	-2921
BUFFER	-2922
Err	-2923
▁cal	-2924
umn	-2925
▁del	-2926
▁FEAT	-2927
BAD	-2928
ject	-2929
pret	-2930
▁float	-2931
▁ReadBlobXXX	-2932
wn	-2933
ring	-2934
mutex	-2935
▁cert	-2936
▁meth	-2937
▁previous	-2938
ELD	-2939
dbe	-2940
▁"-	-2941
5:	-2942
86	-2943
Bits	-2944
OPEN	-2945
audio	-2946
▁decode	-2947
response	-2948
position	-2949
.",	-2950
▁sz	-2951
ater	-2952
▁keyword	-2953
samp	-2954
flush	-2955
▁method	-2956
▁record	-2957
+1]	-2958
STATUS	-2959
orrect	-2960
offsets	-2961
PORT	-2962
comps	-2963
▁XML	-2964
VirtualMemory	-2965
AUTH	-2966
jpeg	-2967
▁jng	-2968
second	-2969
ways	-2970
▁ONIG	-2971
kip	-2972
▁diff	-2973
register	-2974
▁PHOTOMETRIC	-2975
Pri	-2976
Free	-2977
▁load	-2978
uccess	-2979
oci	-2980
▁tcg	-2981
ility	-2982
▁MagickCore	-2983
HT	-2984
IV	-2985
INST	-2986
cape	-2987
recv	-2988
actual	-2989
vision	-2990
idi	-2991
ia	-2992
dic	-2993
[1],	-2994
▁\"%	-2995
emp	-2996
php	-2997
ough	-2998
Width	-2999
19	-3000
NET	-3001
control	-3002
rans	-3003
bitmap	-3004
▁child	-3005
▁samples	-3006
▁runtime	-3007
▁':'	-3008
cookie	-3009
xFF	-3010
Entry	-3011
StringTo	-3012
est	-3013
wise	-3014
▁efree	-3015
connect	-3016
Attribute	-3017
uper	-3018
ob	-3019
nam	-3020
names	-3021
EOF	-3022
▁DIS	-3023
▁init	-3024
pk	-3025
report	-3026
▁gener	-3027
handler	-3028
30	-3029
▁window	-3030
_,	-3031
▁sure	-3032
fg	-3033
LOW	-3034
font	-3035
ellBlob	-3036
▁curwin	-3037
angle	-3038
▁'9	-3039
ificate	-3040
▁socket	-3041
pck	-3042
ulti	-3043
alt	-3044
▁dec	-3045
Or	-3046
right	-3047
sive	-3048
▁Pro	-3049
orientation	-3050
JIT	-3051
verr	-3052
wait	-3053
▁EOF	-3054
▁clear	-3055
prefer	-3056
timeout	-3057
attributes	-3058
BUS	-3059
ash	-3060
▁lib	-3061
▁Close	-3062
▁requi	-3063
iov	-3064
,%	-3065
▁gn	-3066
▁lock	-3067
ayload	-3068
DC	-3069
ys	-3070
ager	-3071
record	-3072
▁cipher	-3073
▁mb	-3074
white	-3075
bh	-3076
fL	-3077
OST	-3078
OS	-3079
wo	-3080
begin	-3081
strict	-3082
afe	-3083
xml	-3084
▁yr	-3085
ISOM	-3086
chan	-3087
keep	-3088
RD	-3089
nder	-3090
FC	-3091
ored	-3092
▁got	-3093
chain	-3094
▁order	-3095
ritten	-3096
gc	-3097
2->	-3098
▁fl	-3099
lang	-3100
▁each	-3101
▁Scale	-3102
▁position	-3103
ifd	-3104
HAND	-3105
bool	-3106
bose	-3107
dout	-3108
socket	-3109
strm	-3110
▁pointer	-3111
pm	-3112
pect	-3113
CHANGE	-3114
CTL	-3115
ning	-3116
app	-3117
ling	-3118
▁see	-3119
▁AVERROR	-3120
▁structure	-3121
pub	-3122
Real	-3123
delta	-3124
Structure	-3125
gin	-3126
LINE	-3127
trix	-3128
Float	-3129
36	-3130
On	-3131
GRO	-3132
▁rows	-3133
gr	-3134
▁hid	-3135
▁Pseudo	-3136
▁'9'	-3137
Geometry	-3138
Colormap	-3139
Transfer	-3140
▁content	-3141
connection	-3142
xC	-3143
UTF	-3144
Config	-3145
just	-3146
prog	-3147
icode	-3148
▁hash	-3149
Adapter	-3150
lone	-3151
▁pkt	-3152
▁argv	-3153
unlikely	-3154
▁OPEN	-3155
instance	-3156
▁again	-3157
metadata	-3158
interface	-3159
▁`	-3160
LEX	-3161
▁follow	-3162
▁decoder	-3163
riter	-3164
Decode	-3165
resource	-3166
PIX	-3167
kdc	-3168
wer	-3169
FLAGS	-3170
▁gnutls	-3171
ExceptionInfo	-3172
IR	-3173
allow	-3174
Pa	-3175
fLite	-3176
▁limit	-3177
85	-3178
query	-3179
▁exec	-3180
EG	-3181
vc	-3182
pare	-3183
▁JPEG	-3184
▁PHAR	-3185
▁green	-3186
▁cannot	-3187
uch	-3188
ould	-3189
ormal	-3190
-+-+-+-+	-3191
DEV	-3192
RETURN	-3193
lem	-3194
▁WASM	-3195
scenes	-3196
pat	-3197
_2	-3198
▁Do	-3199
sist	-3200
****************	-3201
sd	-3202
Flag	-3203
▁mag	-3204
vp	-3205
lamp	-3206
▁avio	-3207
▁ignore	-3208
gs	-3209
emu	-3210
▁ep	-3211
▁cap	-3212
lk	-3213
mplex	-3214
primit	-3215
task	-3216
imension	-3217
CacheView	-3218
="	-3219
MB	-3220
Mat	-3221
ments	-3222
OBJECT	-3223
▁mutex	-3224
▁Y	-3225
onents	-3226
▁malloc	-3227
'",	-3228
Msg	-3229
urnal	-3230
Output	-3231
Region	-3232
Process	-3233
decoder	-3234
03	-3235
,"/	-3236
job	-3237
ULTI	-3238
▁SEEK	-3239
▁pop	-3240
memory	-3241
▁compiler	-3242
▁^	-3243
irc	-3244
mul	-3245
▁1:	-3246
▁ar	-3247
▁look	-3248
factor	-3249
pattern	-3250
na	-3251
xa	-3252
hed	-3253
11_	-3254
▁BI	-3255
keys	-3256
CONFIG	-3257
▁through	-3258
▁gra	-3259
▁imp	-3260
internal	-3261
CIP	-3262
▁smart	-3263
ILD	-3264
▁ca	-3265
bind	-3266
Group	-3267
matte	-3268
!=	-3269
deo	-3270
cred	-3271
ither	-3272
pages	-3273
Bitmap	-3274
▁report	-3275
▁EXT	-3276
▁blue	-3277
primitive	-3278
▁supported	-3279
nb	-3280
YK	-3281
elen	-3282
VAR	-3283
▁pool	-3284
▁SQL	-3285
▁shape	-3286
rs	-3287
system	-3288
REF	-3289
auto	-3290
▁did	-3291
▁cursor	-3292
mf	-3293
ellType	-3294
▁ReadBlobXXXLong	-3295
avail	-3296
ottom	-3297
7:	-3298
FREE	-3299
TCHECK	-3300
ReadBlobByte	-3301
LD	-3302
DEX	-3303
YPE	-3304
▁them	-3305
ose	-3306
▁Open	-3307
35	-3308
Current	-3309
▁SSLerr	-3310
▁comment	-3311
pdf	-3312
▁ap	-3313
opts	-3314
▁sbi	-3315
▁cache	-3316
▁SetImage	-3317
FRAME	-3318
atures	-3319
parameters	-3320
ctp	-3321
getc	-3322
▁dns	-3323
Level	-3324
▁viff	-3325
▁ReadBlobLSB	-3326
ted	-3327
lookup	-3328
retval	-3329
perties	-3330
▁delete	-3331
sbi	-3332
▁"/	-3333
▁MB	-3334
Syntax	-3335
side	-3336
PTR	-3337
files	-3338
river	-3339
NAL	-3340
Binary	-3341
////	-3342
ities	-3343
runtime	-3344
ak	-3345
▁enc	-3346
assoc	-3347
Height	-3348
ification	-3349
LOB	-3350
resh	-3351
▁tiff	-3352
lection	-3353
contain	-3354
syn	-3355
sym	-3356
udio	-3357
Close	-3358
strip	-3359
TellBlob	-3360
TIFFGetField	-3361
ged	-3362
FIELD	-3363
planes	-3364
▁parameters	-3365
9:	-3366
▁parent	-3367
RT	-3368
uri	-3369
XPath	-3370
▁dump	-3371
▁store	-3372
ARY	-3373
CAST	-3374
gram	-3375
▁clone	-3376
26	-3377
hid	-3378
down	-3379
rder	-3380
private	-3381
FIL	-3382
tif	-3383
▁AR	-3384
▁item	-3385
FD	-3386
glyph	-3387
aveHeader	-3388
STO	-3389
▁DE	-3390
▁CloseBlob	-3391
hod	-3392
▁needed	-3393
FR	-3394
▁15	-3395
Call	-3396
avig	-3397
verse	-3398
▁final	-3399
Unknown	-3400
▁reading	-3401
INET	-3402
▁initial	-3403
unit	-3404
directory	-3405
WRITE	-3406
▁tran	-3407
ization	-3408
jmp	-3409
▁Bitmap	-3410
ADDR	-3411
orig	-3412
timer	-3413
▁tptr	-3414
mitive	-3415
44	-3416
Track	-3417
ender	-3418
CLIENT	-3419
▁could	-3420
WB	-3421
▁md	-3422
▁entries	-3423
TX	-3424
fill	-3425
START	-3426
extension	-3427
Ext	-3428
▁TO	-3429
pipe	-3430
ingle	-3431
ximage	-3432
▁delta	-3433
▁OPJ	-3434
▁AL	-3435
mgBuff	-3436
▁strcpy	-3437
EXCHANGE	-3438
ced	-3439
▁IDC	-3440
aster	-3441
tributes	-3442
▁received	-3443
[5]	-3444
▁"--	-3445
ARRAY	-3446
IDI	-3447
mis	-3448
▁On	-3449
▁Add	-3450
PTION	-3451
stride	-3452
▁Handle	-3453
ANT	-3454
NTAX	-3455
SYNTAX	-3456
sector	-3457
▁shift	-3458
RealType	-3459
▁cin	-3460
▁url	-3461
GROUP	-3462
▁Note	-3463
▁maxlen	-3464
8]	-3465
▁""	-3466
'\0'	-3467
eturn	-3468
ratch	-3469
Version	-3470
enabled	-3471
Pr	-3472
▁CF	-3473
▁Status	-3474
supported	-3475
scheme	-3476
▁errno	-3477
div	-3478
▁TK	-3479
isual	-3480
▁since	-3481
EK	-3482
exe	-3483
CODEC	-3484
MATCH	-3485
▁HAVE	-3486
▁ut	-3487
0.5	-3488
pab	-3489
▁0.	-3490
Attr	-3491
Vdbe	-3492
ector	-3493
cation	-3494
ene	-3495
▁TF	-3496
STER	-3497
proxy	-3498
OFFSET	-3499
Encoding	-3500
ITH	-3501
VICE	-3502
MagickRealType	-3503
256	-3504
▁Al	-3505
MAIN	-3506
wrap	-3507
unique	-3508
▁avoid	-3509
▁right	-3510
▁trunc	-3511
▁OPENSSL	-3512
▁deliver	-3513
WIN	-3514
svg	-3515
pred	-3516
PATCH	-3517
teger	-3518
irectClass	-3519
go	-3520
▁self	-3521
Unable	-3522
ailable	-3523
sil	-3524
▁cb	-3525
▁cc	-3526
make	-3527
over	-3528
CD	-3529
++,	-3530
▁NG	-3531
ceed	-3532
imap	-3533
▁exif	-3534
Base	-3535
▁encoded	-3536
▁unknown	-3537
Unexpected	-3538
ORY	-3539
fin	-3540
▁inc	-3541
legal	-3542
warning	-3543
DT	-3544
UInt	-3545
▁main	-3546
mapping	-3547
▁always	-3548
▁bitmap	-3549
>\	-3550
▁%"	-3551
▁CAP	-3552
▁USB	-3553
▁also	-3554
dh	-3555
UMP	-3556
iron	-3557
▁where	-3558
BER	-3559
ster	-3560
magic	-3561
▁gst	-3562
Property	-3563
▁section	-3564
lg	-3565
Pre	-3566
done	-3567
Content	-3568
tf	-3569
▁mov	-3570
Io	-3571
pdev	-3572
STACK	-3573
pParse	-3574
▁Error	-3575
▁payload	-3576
ients	-3577
▁errmsg	-3578
▁missing	-3579
ups	-3580
insert	-3581
caps	-3582
very	-3583
▁bet	-3584
car	-3585
▁Se	-3586
xfer	-3587
aved	-3588
STORE	-3589
andom	-3590
▁fill	-3591
▁files	-3592
▁might	-3593
▁convert	-3594
BR	-3595
▁seq	-3596
integer	-3597
▁ReadBlobByte	-3598
[%	-3599
ernel	-3600
▁termin	-3601
▁packets	-3602
dt	-3603
▁bp	-3604
need	-3605
▁Val	-3606
▁doesn	-3607
SYS	-3608
▁UINT	-3609
▁glyph	-3610
Var	-3611
ght	-3612
oth	-3613
rule	-3614
CKCORE	-3615
digits	-3616
WID	-3617
▁happ	-3618
rerror	-3619
▁Wh	-3620
SIGN	-3621
SQL	-3622
ner	-3623
Last	-3624
▁extension	-3625
-=	-3626
TA	-3627
json	-3628
xffffffff	-3629
▁resource	-3630
And	-3631
ram	-3632
Method	-3633
da	-3634
LIC	-3635
SPE	-3636
elf	-3637
peat	-3638
Trace	-3639
section	-3640
mes	-3641
ference	-3642
▁origin	-3643
▁20	-3644
sess	-3645
resses	-3646
UEST	-3647
media	-3648
eature	-3649
DF	-3650
og	-3651
Integer	-3652
ination	-3653
▁information	-3654
Def	-3655
sis	-3656
▁nb	-3657
curr	-3658
▁mount	-3659
▁scale	-3660
transfer	-3661
RED	-3662
▁CR	-3663
warn	-3664
COUNT	-3665
batch	-3666
▁rule	-3667
verify	-3668
present	-3669
BACK	-3670
▁'0'	-3671
WIDTH	-3672
bb	-3673
vr	-3674
cli	-3675
▁DT	-3676
FILTER	-3677
affine	-3678
PK	-3679
sm	-3680
SYN	-3681
▁vm	-3682
igen	-3683
omic	-3684
▁bel	-3685
Gener	-3686
▁HTTP	-3687
▁PseudoClass	-3688
cul	-3689
ILED	-3690
▁doc	-3691
▁xmlXPath	-3692
!!	-3693
▁ok	-3694
cleanup	-3695
clip	-3696
▁njs	-3697
▁CONST	-3698
▁curbuf	-3699
00,	-3700
ELY	-3701
LIK	-3702
quant	-3703
▁http	-3704
LIKELY	-3705
Tmp	-3706
fam	-3707
med	-3708
▁Lo	-3709
UBLE	-3710
suff	-3711
▁sec	-3712
Coeff	-3713
Options	-3714
EST	-3715
RLE	-3716
ible	-3717
▁255	-3718
ULONG	-3719
curwin	-3720
encode	-3721
progress	-3722
Sc	-3723
APP	-3724
DBG	-3725
▁db	-3726
▁TAG	-3727
▁STR	-3728
▁zval	-3729
"[	-3730
rq	-3731
1->	-3732
tle	-3733
▁2:	-3734
▁fs	-3735
step	-3736
pending	-3737
QuantumPixels	-3738
▁rv	-3739
ENABLE	-3740
▁NEXTINST	-3741
QuantumInfo	-3742
pps	-3743
svp	-3744
INDEX	-3745
Point	-3746
digest	-3747
policy	-3748
▁enough	-3749
+=4	-3750
anch	-3751
PC	-3752
dma	-3753
INTEG	-3754
Sw	-3755
BIN	-3756
got	-3757
▁vl	-3758
varp	-3759
PRESSION	-3760
protocol	-3761
LIT	-3762
▁->	-3763
▁rt	-3764
argc	-3765
POINT	-3766
FAILED	-3767
layers	-3768
serial	-3769
verride	-3770
▁pattern	-3771
▁TensorShape	-3772
ARD	-3773
full	-3774
family	-3775
6:	-3776
SOF	-3777
Port	-3778
CONST	-3779
exclude	-3780
"\	-3781
▁$	-3782
lex	-3783
SSAGE	-3784
optional	-3785
%04	-3786
Filter	-3787
▁lines	-3788
iven	-3789
dentry	-3790
▁throw	-3791
allocate	-3792
▁SL	-3793
▁insn	-3794
▁least	-3795
▁TIFFSet	-3796
▁present	-3797
MAGI	-3798
NOWN	-3799
▁Res	-3800
://	-3801
▁sha	-3802
ALIGN	-3803
chars	-3804
ternal	-3805
▁large	-3806
▁control	-3807
Idx	-3808
spl	-3809
EXCE	-3810
cent	-3811
diff	-3812
itle	-3813
▁fname	-3814
▁WriteBlobByte	-3815
DH	-3816
BIG	-3817
▁they	-3818
sistent	-3819
CoderError	-3820
UND	-3821
reserve	-3822
▁channels	-3823
ATAL	-3824
USER	-3825
Layer	-3826
alias	-3827
gener	-3828
Signed	-3829
0:	-3830
▁RS	-3831
display	-3832
interlace	-3833
descriptor	-3834
▁rp	-3835
▁two	-3836
▁Skip	-3837
▁json	-3838
▁label	-3839
▁characters	-3840
the	-3841
site	-3842
▁Parse	-3843
ONLY	-3844
▁push	-3845
▁possible	-3846
LoadImageTag	-3847
/2	-3848
▁HT	-3849
▁...	-3850
description	-3851
▁It	-3852
ATOM	-3853
▁EXS	-3854
PARSE	-3855
points	-3856
TransferSyntax	-3857
34	-3858
ync	-3859
insn	-3860
lower	-3861
▁TYPE	-3862
▁diffe	-3863
indices	-3864
SetImage	-3865
CRY	-3866
bove	-3867
LOCAL	-3868
▁COMP	-3869
▁multip	-3870
gp	-3871
np	-3872
ARE	-3873
Any	-3874
App	-3875
OPY	-3876
EXIT	-3877
restore	-3878
▁encoding	-3879
▁what	-3880
▁happen	-3881
DCM	-3882
txt	-3883
Rect	-3884
▁strf	-3885
sin	-3886
▁gd	-3887
▁gs	-3888
▁nl	-3889
ugin	-3890
▁scene	-3891
ironment	-3892
MAGICKCORE	-3893
SV	-3894
UI	-3895
▁1].	-3896
gnutls	-3897
legate	-3898
AcquireImage	-3899
_1	-3900
ond	-3901
GRAY	-3902
[2],	-3903
MULTI	-3904
▁qemu	-3905
VirtualPixels	-3906
Mask	-3907
helper	-3908
▁headers	-3909
Ph	-3910
ANG	-3911
pop	-3912
Copy	-3913
REAK	-3914
ense	-3915
frames	-3916
stdout	-3917
▁remove	-3918
ntp	-3919
enable	-3920
▁DISPATCH	-3921
Db	-3922
tc	-3923
TURE	-3924
▁know	-3925
ReadBlobLSBShort	-3926
167	-3927
MAG	-3928
eof	-3929
Head	-3930
▁zip	-3931
setup	-3932
BL	-3933
cr	-3934
lp	-3935
vs	-3936
This	-3937
=%.20	-3938
▁keep	-3939
▁extent	-3940
UID	-3941
▁AF	-3942
▁its	-3943
='	-3944
lim	-3945
edia	-3946
Order	-3947
thing	-3948
indent	-3949
SUPPORTED	-3950
addOption	-3951
ORDER	-3952
INTEGER	-3953
▁ot	-3954
cmpt	-3955
▁SSH	-3956
SPACE	-3957
findOption	-3958
▁Initialize	-3959
Bit	-3960
Can	-3961
draw	-3962
▁vim	-3963
EndOf	-3964
▁proc	-3965
remove	-3966
▁variable	-3967
▁attributes	-3968
Dest	-3969
serv	-3970
gt	-3971
fix	-3972
▁TODO	-3973
service	-3974
Iu	-3975
TRY	-3976
isn	-3977
▁FOR	-3978
▁play	-3979
STRLEN	-3980
▁Ch	-3981
Encode	-3982
backup	-3983
palette	-3984
mplement	-3985
77	-3986
▁PG	-3987
PROP	-3988
▁TLS	-3989
IBIDI	-3990
▁SetPixelRed	-3991
oi	-3992
Del	-3993
▁bn	-3994
SURE	-3995
restrict	-3996
TC	-3997
pn	-3998
cols	-3999
endl	-4000
slot	-4001
true	-4002
▁font	-4003
▁descriptor	-4004
▁SetPixelBlue	-4005
ShortToQuantum	-4006
▁SE	-4007
▁replace	-4008
=2	-4009
SF	-4010
Sh	-4011
IZE	-4012
mnt	-4013
Clamp	-4014
FATAL	-4015
racket	-4016
▁begin	-4017
settings	-4018
▁SetPixelGreen	-4019
pair	-4020
split	-4021
▁rout	-4022
▁queue	-4023
▁append	-4024
▁bounds	-4025
Document	-4026
▁CH	-4027
FEAT	-4028
sure	-4029
readInt	-4030
▁GetNext	-4031
neg	-4032
conf	-4033
EVENT	-4034
Valid	-4035
▁sprintf	-4036
UV	-4037
vas	-4038
ware	-4039
flict	-4040
vq	-4041
LEG	-4042
bus	-4043
PROC	-4044
▁cre	-4045
MESSAGE	-4046
avigation	-4047
▁sequence	-4048
".	-4049
sole	-4050
under	-4051
▁overflow	-4052
TF	-4053
SOFT	-4054
Save	-4055
ites	-4056
▁HTML	-4057
rowser	-4058
75	-4059
▁Bu	-4060
SAMPLE	-4061
▁crypt	-4062
▁nto	-4063
▁many	-4064
callback	-4065
▁PixelPacket	-4066
99	-4067
%02	-4068
ifp	-4069
▁":	-4070
▁1.	-4071
▁gc	-4072
notify	-4073
▁TIFFSetField	-4074
DIG	-4075
PASS	-4076
soap	-4077
]\	-4078
▁above	-4079
pak	-4080
TRAN	-4081
post	-4082
▁raw	-4083
break	-4084
avpack	-4085
bitstrm	-4086
extract	-4087
function	-4088
poc	-4089
sel	-4090
▁KRB	-4091
EXCEPTION	-4092
SB	-4093
utt	-4094
icon	-4095
▁TIME	-4096
▁explicit	-4097
GetImage	-4098
▁sig	-4099
INPUT	-4100
video	-4101
Record	-4102
LocaleN	-4103
LocaleNCompare	-4104
hi	-4105
sf	-4106
▁fp	-4107
PS	-4108
[6	-4109
▁To	-4110
▁Line	-4111
chroma	-4112
25	-4113
OLD	-4114
asn	-4115
▁"[	-4116
SEEK	-4117
▁WORD	-4118
parsed	-4119
▁later	-4120
▁builder	-4121
INS	-4122
ARCH	-4123
▁would	-4124
Resolution	-4125
gd	-4126
ACH	-4127
Exp	-4128
inv	-4129
rix	-4130
ById	-4131
▁kvm	-4132
pData	-4133
pointer	-4134
saction	-4135
▁GetNextToken	-4136
BImgBuff	-4137
WD	-4138
dat	-4139
iso	-4140
▁40	-4141
Temp	-4142
▁specified	-4143
HOST	-4144
▁argc	-4145
▁stop	-4146
errupt	-4147
▁below	-4148
▁Stream	-4149
▁authentic	-4150
+4	-4151
802	-4152
IFY	-4153
ULE	-4154
▁OMX	-4155
SHORT	-4156
initial	-4157
▁ximage	-4158
elements	-4159
▁WaveHeader	-4160
lx	-4161
▁0.0	-4162
▁Trans	-4163
UNKNOWN	-4164
DestroyString	-4165
Push	-4166
▁yet	-4167
remote	-4168
▁CONFIG	-4169
FileName	-4170
complete	-4171
bpp	-4172
umbn	-4173
ended	-4174
super	-4175
▁tick	-4176
ASSIGN	-4177
Source	-4178
umbnail	-4179
|=	-4180
asic	-4181
▁NJS	-4182
▁PRO	-4183
▁big	-4184
▁sctp	-4185
DEVICE	-4186
MEMORY	-4187
Handler	-4188
segment	-4189
▁different	-4190
▁EXPRESSION	-4191
▁IO	-4192
▁Py	-4193
MAGE	-4194
compiler	-4195
▁columns	-4196
▁without	-4197
OC	-4198
▁LZ	-4199
Back	-4200
Iter	-4201
▁Max	-4202
DOUBLE	-4203
▁avctx	-4204
▁gamma	-4205
Position	-4206
84	-4207
MAL	-4208
▁SH	-4209
▁br	-4210
▁pk	-4211
With	-4212
exist	-4213
/%	-4214
▁En	-4215
▁cfg	-4216
▁FLAG	-4217
itional	-4218
yp	-4219
RSA	-4220
▁"<	-4221
▁TG	-4222
▁ff	-4223
Gray	-4224
HANDLE	-4225
icient	-4226
EOFBlob	-4227
▁accept	-4228
▁second	-4229
▁required	-4230
LECT	-4231
ensity	-4232
▁archive	-4233
▁COMPRESSION	-4234
gx	-4235
TOO	-4236
lend	-4237
▁Data	-4238
▁bound	-4239
166	-4240
▁wait	-4241
AVPACK	-4242
ending	-4243
opcode	-4244
INTERNAL	-4245
_'	-4246
CRE	-4247
MAC	-4248
▁gr	-4249
HASH	-4250
▁psf	-4251
▁EMIT	-4252
▁strn	-4253
▁guint	-4254
BlobSize	-4255
ImageData	-4256
USH	-4257
▁MY	-4258
StringToDouble	-4259
RAN	-4260
▁dy	-4261
▁Now	-4262
▁blk	-4263
urface	-4264
▁segment	-4265
PM	-4266
vb	-4267
32,	-4268
hci	-4269
oot	-4270
▁sb	-4271
CALL	-4272
DATE	-4273
▁"",	-4274
▁snd	-4275
model	-4276
features	-4277
168	-4278
▁even	-4279
▁align	-4280
attribute	-4281
gg	-4282
pci	-4283
rva	-4284
>>>>	-4285
cision	-4286
0_	-4287
UD	-4288
rsa	-4289
▁DNS	-4290
▁INT	-4291
lative	-4292
▁reset	-4293
_3	-4294
jp	-4295
Font	-4296
HAVE	-4297
KEEP	-4298
anal	-4299
▁uid	-4300
orith	-4301
Function	-4302
▁CAPTURE	-4303
▁0:	-4304
orary	-4305
▁RSVP	-4306
Window	-4307
Storage	-4308
lication	-4309
sequence	-4310
▁signature	-4311
218	-4312
REC	-4313
sfd	-4314
Dict	-4315
▁sync	-4316
Coeffs	-4317
▁global	-4318
▁graphic	-4319
EB	-4320
\\	-4321
▁MD	-4322
enum	-4323
▁'_'	-4324
large	-4325
▁When	-4326
verbose	-4327
▁search	-4328
▁addresses	-4329
PixelPacket	-4330
MRB	-4331
mer	-4332
fork	-4333
▁cff	-4334
ename	-4335
ioctl	-4336
asecmp	-4337
▁Reset	-4338
▁expected	-4339
GL	-4340
XML	-4341
▁et	-4342
▁tri	-4343
Local	-4344
CONTAIN	-4345
RUN	-4346
▁cell	-4347
▁drop	-4348
llegal	-4349
SizeType	-4350
api	-4351
▁BU	-4352
▁pu	-4353
fetch	-4354
Unique	-4355
▁SetPixelAlpha	-4356
vol	-4357
tach	-4358
ASSERT	-4359
▁retry	-4360
▁WAVPACK	-4361
EXP	-4362
Web	-4363
pts	-4364
▁CLI	-4365
▁msl	-4366
bottom	-4367
mission	-4368
▁padding	-4369
.0*	-4370
PDF	-4371
vcpu	-4372
▁Exit	-4373
▁move	-4374
EMP	-4375
▁tim	-4376
▁Make	-4377
Warning	-4378
Quant	-4379
VALID	-4380
▁SCAN	-4381
▁head	-4382
groups	-4383
▁SAFNUM	-4384
GetVirtualPixels	-4385
ZIP	-4386
METH	-4387
▁mac	-4388
▁rex	-4389
22	-4390
86_	-4391
rex	-4392
▁ASS	-4393
matrix	-4394
▁means	-4395
Conflict	-4396
password	-4397
▁TIMELIB	-4398
checkConflict	-4399
ole	-4400
FACE	-4401
refe	-4402
uted	-4403
ving	-4404
▁FIX	-4405
▁SOCK	-4406
▁rect	-4407
writeInt	-4408
AVI	-4409
▁25	-4410
▁ed	-4411
▁sg	-4412
▁uc	-4413
CIPHER	-4414
▁xmlChar	-4415
▁EN	-4416
▁He	-4417
▁mm	-4418
Media	-4419
bound	-4420
▁like	-4421
▁orig	-4422
▁symbol	-4423
cy	-4424
vt	-4425
jor	-4426
org	-4427
cpar	-4428
icmp	-4429
▁cond	-4430
opaque	-4431
ClampToQuantum	-4432
DN	-4433
▁rest	-4434
""	-4435
du	-4436
DEP	-4437
high	-4438
,"%.20	-4439
backprop	-4440
▁sockaddr	-4441
fn	-4442
Pop	-4443
loor	-4444
Chars	-4445
METHOD	-4446
Ali	-4447
strings	-4448
TraceEvent	-4449
DebugString	-4450
Run	-4451
until	-4452
▁fall	-4453
▁full	-4454
ENSURE	-4455
Supported	-4456
valu	-4457
equal	-4458
BlobMode	-4459
▁ThrowMagick	-4460
BinaryBlobMode	-4461
ZER	-4462
__,	-4463
UTLS	-4464
fidx	-4465
▁ldblk	-4466
written	-4467
▁allowed	-4468
▁IV	-4469
band	-4470
fast	-4471
zval	-4472
atalen	-4473
▁Create	-4474
▁single	-4475
76	-4476
OT	-4477
rat	-4478
PERM	-4479
fold	-4480
journal	-4481
GetFirst	-4482
▁protocol	-4483
SW	-4484
MPEG	-4485
gray	-4486
ings	-4487
▁Don	-4488
arena	-4489
retry	-4490
SERVER	-4491
▁SLJIT	-4492
▁NGHTTP	-4493
StructureClass	-4494
CMP	-4495
ERS	-4496
ied	-4497
Init	-4498
disk	-4499
▁safe	-4500
▁correct	-4501
BB	-4502
3->	-4503
▁fin	-4504
▁mpi	-4505
▁pub	-4506
style	-4507
Defaulted	-4508
WH	-4509
LAY	-4510
tect	-4511
istic	-4512
▁jump	-4513
Writer	-4514
common	-4515
▁thread	-4516
EndOfFile	-4517
Relinquish	-4518
+1,	-4519
BOX	-4520
ROM	-4521
crc	-4522
las	-4523
▁lys	-4524
▁still	-4525
opacity	-4526
BD	-4527
rsp	-4528
▁pp	-4529
DESC	-4530
ower	-4531
access	-4532
REP	-4533
User	-4534
jump	-4535
null	-4536
ecution	-4537
▁success	-4538
▁MagickTrue	-4539
ReadBlobLong	-4540
2=	-4541
hwnd	-4542
nPos	-4543
Right	-4544
ceive	-4545
imapd	-4546
▁LDAP	-4547
NORE	-4548
disp	-4549
elem	-4550
leaf	-4551
REQUEST	-4552
ryption	-4553
Undefined	-4554
swap	-4555
DEFAULT	-4556
struction	-4557
▁contains	-4558
krb	-4559
▁asn	-4560
lector	-4561
riting	-4562
ociation	-4563
▁connect	-4564
[-2	-4565
TEXT	-4566
black	-4567
▁batch	-4568
ava	-4569
emit	-4570
PARAM	-4571
units	-4572
Vector	-4573
andsha	-4574
▁setting	-4575
IDE	-4576
▁mx	-4577
▁Dis	-4578
Result	-4579
▁split	-4580
CF	-4581
LZ	-4582
▁,	-4583
▁MIN	-4584
share	-4585
andbox	-4586
licate	-4587
▁FIXME	-4588
andshake	-4589
COMPRESSION	-4590
EQ	-4591
=\"	-4592
inf	-4593
jng	-4594
LEAN	-4595
VIDE	-4596
osite	-4597
▁jpeg	-4598
▁interface	-4599
ful	-4600
Address	-4601
-3	-4602
21	-4603
NEL	-4604
blem	-4605
tempt	-4606
render	-4607
▁these	-4608
▁fclose	-4609
fh	-4610
>::	-4611
hing	-4612
rong	-4613
deliver	-4614
windows	-4615
▁system	-4616
Dlg	-4617
Env	-4618
FUNC	-4619
iris	-4620
▁Size	-4621
▁irep	-4622
crypto	-4623
tty	-4624
expr	-4625
oriz	-4626
pped	-4627
▁rot	-4628
stead	-4629
▁STAT	-4630
▁delay	-4631
scanline	-4632
264	-4633
INK	-4634
Raw	-4635
vity	-4636
LIMIT	-4637
cheme	-4638
ermes	-4639
▁NODE	-4640
reader	-4641
▁setup	-4642
▁RETURN	-4643
=4	-4644
CCP	-4645
]",	-4646
Left	-4647
▁UWORD	-4648
▁SQLITE	-4649
Extension	-4650
INTERFACE	-4651
]"	-4652
▁nla	-4653
counter	-4654
▁attribute	-4655
▁WriteBlobLSB	-4656
Uns	-4657
alk	-4658
▁jo	-4659
trace	-4660
▁inet	-4661
▁pipe	-4662
VERIFY	-4663
advance	-4664
▁LIBRAW	-4665
2]	-4666
ono	-4667
▁IN	-4668
▁jp	-4669
▁BIT	-4670
EDTLS	-4671
ustom	-4672
▁1455	-4673
▁access	-4674
OpenBlob	-4675
70	-4676
Di	-4677
\0	-4678
mont	-4679
ished	-4680
-1,	-4681
TRL	-4682
▁pb	-4683
QUAL	-4684
hint	-4685
▁gray	-4686
▁task	-4687
Server	-4688
operands	-4689
peed	-4690
▁ALO	-4691
CONNE	-4692
▁crop	-4693
ENC	-4694
JMP	-4695
▁kz	-4696
Cont	-4697
▁clo	-4698
endpoint	-4699
WriteBlob	-4700
MAN	-4701
▁RL	-4702
▁[%	-4703
ctype	-4704
88	-4705
Be	-4706
Dir	-4707
▁FR	-4708
Host	-4709
SizeY	-4710
scanf	-4711
Cursor	-4712
▁datum	-4713
parator	-4714
ecutionStatus	-4715
SM	-4716
ud	-4717
:",	-4718
gap	-4719
▁lp	-4720
PAGE	-4721
Tick	-4722
▁tlv	-4723
Target	-4724
Thread	-4725
rement	-4726
▁strchr	-4727
39	-4728
TLV	-4729
▁gp	-4730
▁LYS	-4731
errors	-4732
▁domain	-4733
▁strncpy	-4734
IOC	-4735
frm	-4736
▁ms	-4737
▁sf	-4738
Loop	-4739
dent	-4740
rout	-4741
PROTOCOL	-4742
▁password	-4743
=0.	-4744
▁mi	-4745
dbus	-4746
Param	-4747
▁network	-4748
31	-4749
SON	-4750
VPN	-4751
▁8,	-4752
▁pg	-4753
▁tx	-4754
▁tvb	-4755
▁down	-4756
▁certificate	-4757
WA	-4758
-1]	-4759
▁dd	-4760
Space	-4761
lated	-4762
namic	-4763
realm	-4764
ekBlob	-4765
utable	-4766
▁sender	-4767
levision	-4768
▁playState	-4769
▁DirectClass	-4770
ANCE	-4771
mail	-4772
▁Web	-4773
IMAGE	-4774
uster	-4775
▁both	-4776
▁flat	-4777
▁indices	-4778
vl	-4779
orm	-4780
▁ai	-4781
▁nr	-4782
emon	-4783
lots	-4784
▁App	-4785
▁whe	-4786
ority	-4787
▁saved	-4788
▁cookie	-4789
▁opcode	-4790
%08	-4791
HAS	-4792
▁bind	-4793
▁jbig	-4794
▁cursp	-4795
▁query	-4796
cu	-4797
gl	-4798
xe	-4799
ONT	-4800
▁BMP	-4801
▁CMD	-4802
▁CTO	-4803
▁sym	-4804
usted	-4805
ticket	-4806
▁resolution	-4807
`%	-4808
dns	-4809
▁Ad	-4810
▁RA	-4811
▁cs	-4812
+0.5	-4813
ETCH	-4814
reason	-4815
▁recur	-4816
▁nothing	-4817
▁arguments	-4818
API	-4819
▁PTR	-4820
▁dma	-4821
▁endif	-4822
▁blocks	-4823
ermesValue	-4824
television	-4825
origination	-4826
If	-4827
\'	-4828
wb	-4829
32.	-4830
til	-4831
▁CC	-4832
static	-4833
sampling	-4834
NotSupported	-4835
BZ	-4836
DB	-4837
▁ISN	-4838
▁USE	-4839
▁bpp	-4840
▁link	-4841
▁TfLite	-4842
▁fields	-4843
Iterator	-4844
dm	-4845
SSH	-4846
eed	-4847
▁Up	-4848
▁let	-4849
throw	-4850
screen	-4851
,1	-4852
gex	-4853
sql	-4854
war	-4855
Bool	-4856
▁way	-4857
▁obuf	-4858
weight	-4859
▁raster	-4860
ctionary	-4861
▁settings	-4862
QuantumRange	-4863
AA	-4864
CLO	-4865
nto	-4866
▁ss	-4867
▁TCP	-4868
literal	-4869
▁points	-4870
▁verify	-4871
▁scanline	-4872
54	-4873
exc	-4874
▁su	-4875
bsol	-4876
Clone	-4877
[-2].	-4878
▁PRIu	-4879
▁dire	-4880
master	-4881
FUNCTION	-4882
MSBEndian	-4883
INVALIDDATA	-4884
ween	-4885
Settings	-4886
▁otherwise	-4887
▁requested	-4888
dl	-4889
FIN	-4890
[8]	-4891
rcv	-4892
▁00	-4893
pping	-4894
OPTION	-4895
▁ASSERT	-4896
▁module	-4897
▁corrupt	-4898
Put	-4899
▁4:	-4900
▁NT	-4901
LLVM	-4902
▁gre	-4903
place	-4904
ential	-4905
bsolute	-4906
▁uschar	-4907
ROW	-4908
▁'^	-4909
dire	-4910
sume	-4911
▁Use	-4912
lugin	-4913
timestamp	-4914
▁background	-4915
Cb	-4916
bc	-4917
Obj	-4918
▁own	-4919
='\0'	-4920
Scope	-4921
allen	-4922
olate	-4923
7]	-4924
▁Is	-4925
▁lz	-4926
culate	-4927
depend	-4928
DestroyImageInfo	-4929
▁ExecutionStatus	-4930
▁3:	-4931
▁CM	-4932
Exif	-4933
▁plen	-4934
▁slice	-4935
allenge	-4936
▁crypto	-4937
024	-4938
idc	-4939
▁ir	-4940
▁dup	-4941
▁strl	-4942
Matrix	-4943
sender	-4944
▁never	-4945
oft	-4946
INED	-4947
▁ber	-4948
Render	-4949
andard	-4950
Elements	-4951
▁TIFFTAG	-4952
▁GetBlobSize	-4953
OMX	-4954
acp	-4955
uce	-4956
aded	-4957
000000	-4958
action	-4959
decoded	-4960
imgdata	-4961
▁assume	-4962
explicit	-4963
▁palette	-4964
▁CellType	-4965
LAN	-4966
les	-4967
▁*=	-4968
crop	-4969
IGNORE	-4970
orithm	-4971
spaces	-4972
indexes	-4973
EM	-4974
pv	-4975
Ltv	-4976
sth	-4977
rsvp	-4978
util	-4979
▁icon	-4980
search	-4981
▁mydata	-4982
▁changed	-4983
28	-4984
Lock	-4985
SOCK	-4986
rbuf	-4987
▁MNG	-4988
canvas	-4989
transport	-4990
mG	-4991
mux	-4992
LITE	-4993
Oper	-4994
RECT	-4995
RESP	-4996
TEST	-4997
▁CFG	-4998
▁NFA	-4999
build	-5000
incip	-5001
▁pChn	-5002
polate	-5003
▁Ascii	-5004
subtype	-5005
▁reference	-5006
=8	-5007
FE	-5008
MI	-5009
The	-5010
▁3,	-5011
NOTI	-5012
prec	-5013
atter	-5014
▁another	-5015
</	-5016
>"	-5017
CA	-5018
IE	-5019
SIST	-5020
sRGB	-5021
▁Num	-5022
▁enum	-5023
▁sign	-5024
▁action	-5025
▁timeout	-5026
-4	-5027
Mo	-5028
TCP	-5029
cessed	-5030
visual	-5031
▁small	-5032
ifs	-5033
vma	-5034
▁'^'	-5035
Indic	-5036
maker	-5037
▁being	-5038
document	-5039
▁whether	-5040
pdu	-5041
Pack	-5042
itor	-5043
SSION	-5044
ascii	-5045
▁post	-5046
▁either	-5047
▁magick	-5048
▁dimension	-5049
Cr	-5050
PLY	-5051
njs	-5052
▁rs	-5053
ACCE	-5054
▁ASC	-5055
▁xfs	-5056
▁chan	-5057
MAPTYP	-5058
▁pages	-5059
CommandOption	-5060
IPV	-5061
rot	-5062
▁"*	-5063
EXEC	-5064
ittle	-5065
ordin	-5066
syntax	-5067
▁abort	-5068
modules	-5069
▁between	-5070
29	-5071
URI	-5072
▁yo	-5073
ZLIB	-5074
area	-5075
diag	-5076
mGui	-5077
▁100	-5078
▁AVI	-5079
▁fix	-5080
▁fmt	-5081
▁INIT	-5082
▁swap	-5083
failure	-5084
incipal	-5085
container	-5086
220	-5087
dib	-5088
BASE	-5089
cblk	-5090
iant	-5091
tell	-5092
▁ipp	-5093
ERRNO	-5094
▁MODE	-5095
delete	-5096
rypted	-5097
▁under	-5098
▁insert	-5099
▁FRIBIDI	-5100
ws	-5101
ESC	-5102
MED	-5103
[6]	-5104
▁'"	-5105
▁RB	-5106
SEND	-5107
\"",	-5108
force	-5109
reams	-5110
DlgItem	-5111
▁offsetof	-5112
▁ciphertext	-5113
3.	-5114
HY	-5115
ots	-5116
▁gif	-5117
▁how	-5118
▁READ	-5119
select	-5120
ilities	-5121
▁printk	-5122
CONTAINER	-5123
▁GN	-5124
▁Ver	-5125
PACKET	-5126
▁about	-5127
▁MBEDTLS	-5128
▁implement	-5129
cts	-5130
ency	-5131
▁CUR	-5132
actor	-5133
▁CMYK	-5134
components	-5135
▁ThrowWriter	-5136
1]	-5137
rfb	-5138
dtor	-5139
loss	-5140
pLog	-5141
vdev	-5142
vval	-5143
▁CURL	-5144
80211_	-5145
▁indic	-5146
▁until	-5147
▁advance	-5148
identifier	-5149
▁compressed	-5150
.%	-5151
PAL	-5152
▁cd	-5153
▁RFC	-5154
simple	-5155
username	-5156
▁returned	-5157
:\	-5158
zu	-5159
','	-5160
wpc	-5161
uring	-5162
ection	-5163
▁chain	-5164
mething	-5165
replace	-5166
▁blocksize	-5167
74	-5168
SIG	-5169
icc	-5170
phy	-5171
trl	-5172
Atom	-5173
GLOB	-5174
ever	-5175
▁IPP	-5176
▁audio	-5177
▁class	-5178
template	-5179
▁instead	-5180
dimension	-5181
stri	-5182
▁acc	-5183
Align	-5184
MAGIC	-5185
SizeX	-5186
curbuf	-5187
filesize	-5188
▁Compute	-5189
7_	-5190
Ac	-5191
4->	-5192
KEN	-5193
ular	-5194
▁Send	-5195
▁were	-5196
DECODE	-5197
▁Other	-5198
▁every	-5199
▁strdup	-5200
duration	-5201
fragment	-5202
Directory	-5203
440	-5204
dng	-5205
ons	-5206
▁XXX	-5207
hostname	-5208
655	-5209
CAC	-5210
▁13	-5211
ERAL	-5212
Rule	-5213
quot	-5214
flate	-5215
multi	-5216
▁bail	-5217
matches	-5218
▁column	-5219
Internal	-5220
▁display	-5221
ids	-5222
lvl	-5223
msr	-5224
tun	-5225
▁AD	-5226
++]=	-5227
2000	-5228
STOP	-5229
note	-5230
tiles	-5231
▁sent	-5232
▁strip	-5233
UnableTo	-5234
ReadBlobLSBLong	-5235
64,	-5236
Bad	-5237
OUR	-5238
ffect	-5239
keyid	-5240
answer	-5241
boolean	-5242
▁stride	-5243
▁mapping	-5244
IMP	-5245
cdr	-5246
Reply	-5247
caped	-5248
modrm	-5249
▁xref	-5250
▁Clone	-5251
feature	-5252
manager	-5253
▁matches	-5254
▁available	-5255
1000	-5256
<<16	-5257
quic	-5258
▁END	-5259
▁cop	-5260
","`%	-5261
fatal	-5262
iling	-5263
▁recip	-5264
Palette	-5265
Samples	-5266
Descriptor	-5267
▁TIFFClose	-5268
78	-5269
DY	-5270
tu	-5271
ENV	-5272
mpi	-5273
pcm	-5274
IGHT	-5275
VLOG	-5276
abel	-5277
fifo	-5278
zone	-5279
attrs	-5280
compat	-5281
▁STATE	-5282
pability	-5283
MagickSizeType	-5284
xc	-5285
ANY	-5286
BOT	-5287
IST	-5288
kvm	-5289
▁19	-5290
ZERO	-5291
▁IPv	-5292
▁mis	-5293
▁dims	-5294
▁parts	-5295
vocation	-5296
▁complex	-5297
▁scanner	-5298
+0	-5299
PTO	-5300
BOOL	-5301
igrp	-5302
Could	-5303
KEYWORD	-5304
persistent	-5305
▁ReadBlobLSBLong	-5306
]]	-5307
GEN	-5308
cwd	-5309
iro	-5310
CTOR	-5311
NEXT	-5312
lain	-5313
▁mid	-5314
FETCH	-5315
Select	-5316
▁ENABLE	-5317
▁normal	-5318
As	-5319
ICT	-5320
▁EL	-5321
▁NL	-5322
CERT	-5323
puts	-5324
▁imap	-5325
▁magic	-5326
▁names	-5327
DEFINED	-5328
▁iframe	-5329
▁vector	-5330
reference	-5331
▁yyscanner	-5332
Scan	-5333
scal	-5334
▁bin	-5335
Print	-5336
acter	-5337
▁dist	-5338
argument	-5339
▁strerror	-5340
DEC	-5341
▁tl	-5342
safe	-5343
tries	-5344
uchar	-5345
unref	-5346
▁body	-5347
driver	-5348
nbytes	-5349
devices	-5350
▁signal	-5351
▁initialize	-5352
ks	-5353
ni	-5354
▁OS	-5355
TEMP	-5356
dirs	-5357
▁Not	-5358
▁stuff	-5359
Has	-5360
any	-5361
ALPH	-5362
ASCI	-5363
Swap	-5364
drop	-5365
CTYPE	-5366
▁iris	-5367
Parser	-5368
intent	-5369
codecpar	-5370
▁illegal	-5371
-+-+-+-+-+-+-+-+	-5372
eq	-5373
acl	-5374
gif	-5375
▁So	-5376
sext	-5377
sted	-5378
ADATA	-5379
Return	-5380
TfLite	-5381
Connection	-5382
_4	-5383
CMYK	-5384
Rate	-5385
clar	-5386
ULong	-5387
fpdef	-5388
idden	-5389
▁Dump	-5390
padding	-5391
▁cancel	-5392
▁multiple	-5393
▁original	-5394
NumElements	-5395
ISE	-5396
Src	-5397
▁'\\'	-5398
▁Remove	-5399
▁extract	-5400
!"	-5401
!\	-5402
.*	-5403
CONV	-5404
PRIV	-5405
▁UTF	-5406
LIBRAW	-5407
Origin	-5408
strchr	-5409
ENABLED	-5410
setting	-5411
▁FAILURE	-5412
"/	-5413
bps	-5414
oll	-5415
rer	-5416
sem	-5417
tga	-5418
▁ts	-5419
=0.0	-5420
Auth	-5421
stop	-5422
▁bus	-5423
▁curr	-5424
▁dict	-5425
▁ThrowDCM	-5426
GR	-5427
TV	-5428
EAD	-5429
▁WC	-5430
▁pj	-5431
mall	-5432
▁Mem	-5433
▁bro	-5434
▁man	-5435
rient	-5436
▁File	-5437
▁term	-5438
▁MYSQL	-5439
Opacity	-5440
metrics	-5441
▁database	-5442
zz	-5443
arr	-5444
umb	-5445
▁PK	-5446
Tile	-5447
trfs	-5448
▁MSG	-5449
▁VAR	-5450
▁cnt	-5451
▁power	-5452
latform	-5453
UNLIKELY	-5454
▁override	-5455
169	-5456
▁ct	-5457
%.20	-5458
DBUS	-5459
Full	-5460
mbed	-5461
▁exc	-5462
oring	-5463
▁reas	-5464
NUMBER	-5465
builder	-5466
▁special	-5467
egin	-5468
compno	-5469
optarg	-5470
scratch	-5471
▁Delete	-5472
subarray	-5473
strncasecmp	-5474
▁SetPixelIndex	-5475
ral	-5476
▁np	-5477
▁rb	-5478
guid	-5479
luma	-5480
obuf	-5481
zend	-5482
false	-5483
▁blob	-5484
▁slot	-5485
Unicode	-5486
▁actually	-5487
GetImageOption	-5488
38	-5489
GD	-5490
AMP	-5491
▁11	-5492
▁dc	-5493
Func	-5494
Util	-5495
RANGE	-5496
pinfo	-5497
DIRECT	-5498
errcode	-5499
▁LOGVAL	-5500
Metadata	-5501
▁remaining	-5502
So	-5503
fr	-5504
qt	-5505
Gra	-5506
▁LL	-5507
ALPHA	-5508
▁atoi	-5509
▁recv	-5510
0000000	-5511
VdbeAdd	-5512
encoded	-5513
▁lookup	-5514
ToS	-5515
▁18	-5516
<<24	-5517
huff	-5518
▁LYE	-5519
▁Per	-5520
Depth	-5521
tected	-5522
tlsext	-5523
PERSIST	-5524
surface	-5525
▁strings	-5526
94	-5527
Enc	-5528
Top	-5529
▁ws	-5530
ATED	-5531
cups	-5532
perm	-5533
▁BCM	-5534
▁TMP	-5535
▁iss	-5536
▁vol	-5537
▁Sync	-5538
▁strnc	-5539
cessary	-5540
graphic	-5541
CodeBlock	-5542
▁timestamp	-5543
128	-5544
ably	-5545
▁high	-5546
Literal	-5547
convert	-5548
disable	-5549
▁parameter	-5550
Vol	-5551
pas	-5552
▁\"	-5553
▁hf	-5554
▁tls	-5555
cannot	-5556
mitted	-5557
charset	-5558
▁maximum	-5559
Primitive	-5560
VdbeAddOp	-5561
▁MagickMax	-5562
▁components	-5563
ImageProfile	-5564
-8	-5565
33	-5566
▁bh	-5567
▁RLE	-5568
▁loc	-5569
DELEG	-5570
Ident	-5571
TABLE	-5572
WHITE	-5573
▁PAGE	-5574
▁TRACE	-5575
▁gchar	-5576
▁sscanf	-5577
▁delivery	-5578
▁existing	-5579
▁component	-5580
WITH	-5581
▁128	-5582
▁RGB	-5583
▁area	-5584
▁prot	-5585
member	-5586
▁union	-5587
NextImage	-5588
▁transfer	-5589
98	-5590
▁Bo	-5591
▁CRY	-5592
scope	-5593
voice	-5594
▁take	-5595
multip	-5596
▁restore	-5597
▁following	-5598
8*	-5599
PAK	-5600
PKEY	-5601
ality	-5602
sigma	-5603
▁hold	-5604
▁tlen	-5605
lected	-5606
▁kernel	-5607
OLU	-5608
abs	-5609
▁FF	-5610
ARGS	-5611
lize	-5612
board	-5613
flight	-5614
region	-5615
▁needs	-5616
DISABLE	-5617
▁endian	-5618
▁ticket	-5619
▁Wavpack	-5620
▁operand	-5621
▁property	-5622
▁destination	-5623
▁QuantumRange	-5624
_8	-5625
mv	-5626
COD	-5627
aud	-5628
tore	-5629
vlan	-5630
CHUNK	-5631
Child	-5632
tails	-5633
▁cmpt	-5634
levels	-5635
CellType	-5636
▁created	-5637
colortype	-5638
SYM	-5639
rase	-5640
warf	-5641
▁draw	-5642
andling	-5643
interpret	-5644
▁ThrowFile	-5645
▁something	-5646
+3	-5647
,*	-5648
mx	-5649
[16	-5650
ipv	-5651
▁bs	-5652
Link	-5653
gine	-5654
lave	-5655
rive	-5656
stit	-5657
ATPAK	-5658
SLJIT	-5659
cinfo	-5660
coeff	-5661
Orient	-5662
mydata	-5663
packets	-5664
readint	-5665
▁private	-5666
▁progress	-5667
snd	-5668
▁TS	-5669
▁ns	-5670
▁neg	-5671
Query	-5672
▁pair	-5673
bucket	-5674
▁There	-5675
▁realloc	-5676
sufficient	-5677
GetPixelRed	-5678
2*	-5679
EBP	-5680
ins	-5681
▁ui	-5682
ASCII	-5683
owner	-5684
Colors	-5685
▁btrfs	-5686
▁flush	-5687
cmdline	-5688
▁frames	-5689
▁messages	-5690
DED	-5691
aux	-5692
upp	-5693
▁cr	-5694
COPY	-5695
STRU	-5696
Wrap	-5697
ding	-5698
ered	-5699
vers	-5700
▁BAD	-5701
▁tty	-5702
BYTES	-5703
sizes	-5704
▁Find	-5705
Params	-5706
▁images	-5707
ov	-5708
!=0	-5709
NON	-5710
alle	-5711
sort	-5712
▁Len	-5713
▁isn	-5714
recip	-5715
▁REGI	-5716
▁flow	-5717
▁iptr	-5718
▁lead	-5719
▁rank	-5720
Cannot	-5721
MODULE	-5722
▁Eigen	-5723
▁REGISTER	-5724
GetPixelAlpha	-5725
Dim	-5726
▁At	-5727
CTED	-5728
none	-5729
▁655	-5730
▁tab	-5731
▁hard	-5732
INSERT	-5733
fields	-5734
SESSION	-5735
00000000	-5736
▁Otherwise	-5737
OID	-5738
mid	-5739
▁17	-5740
mpeg	-5741
olve	-5742
▁pas	-5743
plane	-5744
▁lnum	-5745
Intent	-5746
▁equal	-5747
▁DCHECK	-5748
▁allocated	-5749
▁temporary	-5750
Description	-5751
▁uncompressed	-5752
_0	-5753
clk	-5754
▁af	-5755
join	-5756
lens	-5757
uage	-5758
▁BGP	-5759
CRYPT	-5760
FromList	-5761
principal	-5762
▁primitive	-5763
DS	-5764
HYs	-5765
jas	-5766
sep	-5767
▁ax	-5768
▁va	-5769
Draw	-5770
ITEM	-5771
circ	-5772
packed	-5773
aligned	-5774
▁GNUTLS	-5775
▁release	-5776
GetString	-5777
▁document	-5778
90	-5779
Dy	-5780
drv	-5781
REAS	-5782
16[0]	-5783
after	-5784
digit	-5785
calloc	-5786
iframe	-5787
implicit	-5788
transform	-5789
va	-5790
Own	-5791
RST	-5792
rad	-5793
rho	-5794
Word	-5795
cell	-5796
cmap	-5797
▁SHA	-5798
etime	-5799
idata	-5800
verage	-5801
Pointer	-5802
▁adjust	-5803
CONSTANT	-5804
DELEGATE	-5805
▁exchange	-5806
LINK	-5807
ZVAL	-5808
▁Sub	-5809
▁rcu	-5810
CACHE	-5811
▁arch	-5812
eprintf	-5813
▁strcmp	-5814
Thumbnail	-5815
*>	-5816
Img	-5817
ENCE	-5818
FROM	-5819
SING	-5820
WAVE	-5821
devi	-5822
▁acm	-5823
demux	-5824
notes	-5825
splits	-5826
▁cases	-5827
DataSize	-5828
AUD	-5829
UNI	-5830
dia	-5831
Spec	-5832
[-1]	-5833
▁low	-5834
Utils	-5835
power	-5836
score	-5837
words	-5838
ENODEV	-5839
REASON	-5840
▁atomic	-5841
▁copied	-5842
snprintf	-5843
▁elements	-5844
SetImageExtent	-5845
&0	-5846
16,	-5847
ARR	-5848
Man	-5849
RIP	-5850
▁BB	-5851
▁MP	-5852
▁ce	-5853
phdr	-5854
▁utf	-5855
datum	-5856
adcast	-5857
▁ipaddr	-5858
▁parsed	-5859
contents	-5860
reserved	-5861
▁scratch	-5862
asm	-5863
parm	-5864
rest	-5865
chine	-5866
upper	-5867
▁caps	-5868
chunks	-5869
security	-5870
▁parsing	-5871
interrupt	-5872
EEE	-5873
ddx	-5874
rgb	-5875
LEFT	-5876
WAIT	-5877
html	-5878
methx	-5879
ticks	-5880
▁meta	-5881
▁given	-5882
▁ntohl	-5883
Defined	-5884
FEATURE	-5885
▁called	-5886
▁reject	-5887
▁prevent	-5888
▁callback	-5889
SignedLong	-5890
invocation	-5891
Environment	-5892
43	-5893
\"\	-5894
▁rr	-5895
▁td	-5896
mmon	-5897
▁vma	-5898
strnd	-5899
▁keys	-5900
MALLOC	-5901
▁appro	-5902
▁wrong	-5903
PERSISTENT	-5904
64:	-5905
▁NE	-5906
▁MAC	-5907
▁rsp	-5908
ALLOW	-5909
final	-5910
▁pack	-5911
glyphs	-5912
repeat	-5913
▁pExpr	-5914
▁reser	-5915
▁timel	-5916
▁really	-5917
▁remain	-5918
▁decoded	-5919
▁compress	-5920
MemoryInfo	-5921
▁Exception	-5922
SaveImageTag	-5923
##	-5924
72	-5925
mr	-5926
uv	-5927
xF	-5928
▁tm	-5929
MAND	-5930
▁sum	-5931
Empty	-5932
▁buff	-5933
▁such	-5934
formed	-5935
▁STACK	-5936
▁unless	-5937
lz	-5938
▁"+	-5939
▁CP	-5940
ontal	-5941
locals	-5942
Unsigned	-5943
annotate	-5944
overflow	-5945
▁enabled	-5946
▁include	-5947
blocksize	-5948
orizontal	-5949
GA	-5950
!",	-5951
ETTE	-5952
pkey	-5953
▁you	-5954
irtio	-5955
Change	-5956
▁matrix	-5957
▁security	-5958
EVP	-5959
Net	-5960
Over	-5961
▁die	-5962
ately	-5963
adapter	-5964
▁gcScope	-5965
▁numbers	-5966
Orientation	-5967
transaction	-5968
66	-5969
246	-5970
▁service	-5971
▁Ar	-5972
▁ih	-5973
▁vs	-5974
istr	-5975
▁ARCH	-5976
▁EXIT	-5977
▁core	-5978
▁plan	-5979
atomic	-5980
ession	-5981
expand	-5982
▁fixed	-5983
Enabled	-5984
▁timelib	-5985
ww	-5986
GIN	-5987
uer	-5988
eter	-5989
must	-5990
▁NOT	-5991
SELECT	-5992
Entries	-5993
Delegate	-5994
▁internal	-5995
▁requires	-5996
▁2.	-5997
▁AUT	-5998
Flash	-5999
anity	-6000
methy	-6001
▁form	-6002
cancel	-6003
quired	-6004
HANDLES	-6005
tmpzval	-6006
////////	-6007
▁handler	-6008
▁namespace	-6009
▁transport	-6010
ua	-6011
▁'='	-6012
▁Only	-6013
secret	-6014
PALETTE	-6015
reshold	-6016
Instance	-6017
▁failure	-6018
▁anything	-6019
NER	-6020
NOR	-6021
WBI	-6022
▁PB	-6023
sect	-6024
▁atom	-6025
DIGEST	-6026
▁catch	-6027
▁codec	-6028
Section	-6029
valuate	-6030
▁optlen	-6031
All	-6032
OTH	-6033
lac	-6034
NODE	-6035
Part	-6036
seen	-6037
▁iov	-6038
▁smp	-6039
RECORD	-6040
▁Decode	-6041
pabilities	-6042
transparent	-6043
2-	-6044
mc	-6045
Pix	-6046
▁Tr	-6047
▁gl	-6048
stmt	-6049
▁PGM	-6050
▁jpc	-6051
▁ssn	-6052
DEPTH	-6053
ather	-6054
illed	-6055
qmode	-6056
▁cred	-6057
ignore	-6058
vmcode	-6059
▁OFLOG	-6060
AddLine	-6061
▁LIBSSH	-6062
▁strmatch	-6063
EncodeImage	-6064
▁CloneString	-6065
IZ	-6066
ja	-6067
32:	-6068
pow	-6069
ENUM	-6070
wind	-6071
▁Pre	-6072
bably	-6073
chema	-6074
▁chro	-6075
resize	-6076
symbol	-6077
IFT	-6078
UST	-6079
WPG	-6080
▁sun	-6081
idate	-6082
▁gimp	-6083
▁Frame	-6084
▁FLATPAK	-6085
Indicator	-6086
ortQuantumPixels	-6087
-1].	-6088
Pass	-6089
ideo	-6090
race	-6091
udev	-6092
▁alg	-6093
▁genop	-6094
▁their	-6095
▁usage	-6096
vertical	-6097
ImageFromList	-6098
1*	-6099
wq	-6100
dsn	-6101
ERRY	-6102
LOOP	-6103
Send	-6104
▁SIG	-6105
▁tun	-6106
Style	-6107
VIDEO	-6108
endor	-6109
▁gint	-6110
▁optim	-6111
crypted	-6112
decrypt	-6113
▁escape	-6114
▁pending	-6115
ordinates	-6116
▁location	-6117
iterations	-6118
Ctxt	-6119
Find	-6120
havi	-6121
▁cms	-6122
okies	-6123
▁face	-6124
▁less	-6125
Kernel	-6126
havior	-6127
termin	-6128
▁build	-6129
density	-6130
48	-6131
15_	-6132
8::	-6133
RSP	-6134
Bind	-6135
[2].	-6136
adow	-6137
inet	-6138
pval	-6139
yang	-6140
▁WPG	-6141
▁sax	-6142
BREAK	-6143
▁cmap	-6144
▁once	-6145
apture	-6146
center	-6147
roller	-6148
quality	-6149
▁marker	-6150
▁ARCHIVE	-6151
▁problem	-6152
paqueAlpha	-6153
▁processing	-6154
??	-6155
RET	-6156
ango	-6157
xref	-6158
▁FIL	-6159
▁URL	-6160
▁cor	-6161
IOCTL	-6162
etype	-6163
iconv	-6164
intel	-6165
▁most	-6166
▁First	-6167
▁vhost	-6168
▁indexes	-6169
VC	-6170
BMP	-6171
tkt	-6172
pHYs	-6173
▁iso	-6174
MINIS	-6175
▁func	-6176
RESULT	-6177
STRVAL	-6178
BitsPer	-6179
▁metric	-6180
relative	-6181
BitmapHeader	-6182
GS	-6183
HW	-6184
hu	-6185
igger	-6186
title	-6187
▁past	-6188
▁tail	-6189
escape	-6190
▁chars	-6191
asename	-6192
▁Object	-6193
▁compile	-6194
▁literal	-6195
vd	-6196
",2	-6197
POS	-6198
RNS	-6199
zen	-6200
ints	-6201
poly	-6202
▁1.0	-6203
▁JAS	-6204
▁cla	-6205
Const	-6206
VMCODE	-6207
libssh	-6208
▁Inter	-6209
▁QMODE	-6210
changed	-6211
operand	-6212
▁immedi	-6213
▁tables	-6214
component	-6215
▁recipients	-6216
▁association	-6217
SUM	-6218
ncy	-6219
opj	-6220
psf	-6221
▁conf	-6222
RM	-6223
=",	-6224
EIO	-6225
dvb	-6226
vim	-6227
SWAP	-6228
▁RSA	-6229
STAMP	-6230
▁inst	-6231
OUTPUT	-6232
▁expect	-6233
▁render	-6234
defaults	-6235
makernotes	-6236
Insufficient	-6237
CN	-6238
FY	-6239
We	-6240
[7]	-6241
▁-2	-6242
▁30	-6243
▁sv	-6244
newsk	-6245
▁huff	-6246
▁prop	-6247
ckSize	-6248
▁fread	-6249
forward	-6250
▁exists	-6251
▁offsets	-6252
Foc	-6253
uma	-6254
▁Min	-6255
ARGET	-6256
REACH	-6257
ENSION	-6258
anchor	-6259
▁Index	-6260
▁clean	-6261
▁spool	-6262
MSBLong	-6263
▁strTmp	-6264
YUV	-6265
▁AN	-6266
....	-6267
orma	-6268
▁ENO	-6269
nsure	-6270
numer	-6271
▁sudo	-6272
identity	-6273
▁kzalloc	-6274
UniqueFile	-6275
▁CMYKColorspace	-6276
GO	-6277
lt	-6278
xd	-6279
▁rx	-6280
ANAL	-6281
MOVE	-6282
flip	-6283
uest	-6284
▁Can	-6285
Isual	-6286
silon	-6287
usage	-6288
▁prog	-6289
epbuff	-6290
▁Color	-6291
▁quote	-6292
▁GETARG	-6293
▁indent	-6294
NAMESPACE	-6295
NumChannels	-6296
RL	-6297
SED	-6298
▁8:	-6299
Main	-6300
duct	-6301
▁aff	-6302
suffix	-6303
ociated	-6304
partition	-6305
II	-6306
ef	-6307
One	-6308
_1_	-6309
eap	-6310
▁am	-6311
MEDI	-6312
Null	-6313
pTab	-6314
▁Int	-6315
▁Mat	-6316
▁rgb	-6317
▁tor	-6318
*2	-6319
BOSE	-6320
FLOW	-6321
ured	-6322
▁isc	-6323
▁lhs	-6324
MOUNT	-6325
SEPAR	-6326
minor	-6327
times	-6328
▁going	-6329
casecmp	-6330
▁ignored	-6331
tim	-6332
▁GP	-6333
FRAG	-6334
▁hel	-6335
rozen	-6336
▁BITS	-6337
AMETER	-6338
docref	-6339
packer	-6340
▁Gener	-6341
▁modrm	-6342
▁Return	-6343
23	-6344
OLL	-6345
STD	-6346
aut	-6347
rfc	-6348
▁PT	-6349
ally	-6350
prot	-6351
trak	-6352
▁PRE	-6353
pable	-6354
sited	-6355
▁ZEND	-6356
▁grub	-6357
▁Value	-6358
▁super	-6359
Pattern	-6360
bracket	-6361
browser	-6362
▁CRYPTO	-6363
▁proper	-6364
Background	-6365
---	-6366
MNG	-6367
gon	-6368
rdf	-6369
[16]	-6370
ectx	-6371
TRANS	-6372
▁didn	-6373
▁suff	-6374
marker	-6375
▁force	-6376
▁types	-6377
▁Header	-6378
▁HermesValue	-6379
GetPixelGreen	-6380
1+	-6381
srb	-6382
▁pf	-6383
UNIT	-6384
▁End	-6385
▁eat	-6386
▁sps	-6387
▁pTab	-6388
▁scal	-6389
Printf	-6390
EXTRACT	-6391
strndup	-6392
▁STATUS	-6393
GetPixelBlue	-6394
TK	-6395
esd	-6396
ler	-6397
tps	-6398
▁vp	-6399
unce	-6400
ICONV	-6401
Label	-6402
▁Start	-6403
ToSmall	-6404
▁QString	-6405
▁journal	-6406
rectangle	-6407
reserving	-6408
▁matching	-6409
ToSmallCount	-6410
uncompressed	-6411
▁@	-6412
2::	-6413
Seg	-6414
adr	-6415
tgt	-6416
ued	-6417
▁".	-6418
AUDIO	-6419
ENTRY	-6420
Stack	-6421
▁added	-6422
▁leave	-6423
▁trace	-6424
▁compat	-6425
▁spaces	-6426
▁necessary	-6427
DEL	-6428
Exc	-6429
ols	-6430
rsz	-6431
▁ty	-6432
DIAN	-6433
ITION	-6434
defer	-6435
intra	-6436
infile	-6437
tokens	-6438
utdown	-6439
deviate	-6440
▁repeat	-6441
▁metadata	-6442
▁container	-6443
QuantumFormat	-6444
nh	-6445
+=2	-6446
Rgn	-6447
ipc	-6448
sib	-6449
▁SF	-6450
CONF	-6451
LEAR	-6452
mult	-6453
▁ldb	-6454
▁show	-6455
▁uses	-6456
chrome	-6457
▁alias	-6458
▁Ensure	-6459
checksum	-6460
children	-6461
dw	-6462
00\	-6463
sli	-6464
CTRL	-6465
Date	-6466
atom	-6467
irep	-6468
sXXX	-6469
CHILD	-6470
sumed	-6471
ENDIAN	-6472
refine	-6473
▁quant	-6474
▁Memory	-6475
▁TIFFGet	-6476
▁gdImage	-6477
StructureFlag	-6478
moov	-6479
▁fun	-6480
Codec	-6481
Found	-6482
Match	-6483
caten	-6484
items	-6485
▁much	-6486
▁rate	-6487
InFile	-6488
Decoder	-6489
▁stored	-6490
ImageDataInFile	-6491
mk	-6492
10_	-6493
=0,	-6494
IAL	-6495
gnd	-6496
spi	-6497
Root	-6498
igma	-6499
▁rar	-6500
Logger	-6501
precin	-6502
unable	-6503
▁calloc	-6504
Interpret	-6505
OW	-6506
bk	-6507
Ret	-6508
▁TC	-6509
SCAN	-6510
izer	-6511
▁Cal	-6512
SHIFT	-6513
eigrp	-6514
light	-6515
login	-6516
patch	-6517
recur	-6518
▁mail	-6519
Location	-6520
exchange	-6521
▁handled	-6522
▁complete	-6523
▁instruction	-6524
ba	-6525
lea	-6526
rel	-6527
▁"'	-6528
▁cm	-6529
MATH	-6530
[3],	-6531
EMPTY	-6532
gnore	-6533
undef	-6534
▁List	-6535
▁syms	-6536
netdev	-6537
prompt	-6538
▁codes	-6539
streams	-6540
itespace	-6541
PX	-6542
455	-6543
ermin	-6544
mplet	-6545
saved	-6546
VERBOSE	-6547
▁Update	-6548
▁chunks	-6549
-%	-6550
>0	-6551
Us	-6552
bar	-6553
▁ec	-6554
CASE	-6555
▁sra	-6556
▁LLDP	-6557
▁notify	-6558
▁attempt	-6559
Component	-6560
ImagesTag	-6561
▁instance	-6562
LC	-6563
LT	-6564
bg	-6565
ru	-6566
▁rm	-6567
FILL	-6568
PICT	-6569
lier	-6570
uses	-6571
EPERM	-6572
fixed	-6573
hance	-6574
icast	-6575
exists	-6576
listen	-6577
▁multi	-6578
▁during	-6579
▁hexdump	-6580
▁running	-6581
▁trailing	-6582
27	-6583
[9	-6584
fw	-6585
,"\	-6586
165	-6587
iod	-6588
▁2]	-6589
▁dn	-6590
RExC	-6591
edge	-6592
ummy	-6593
▁///	-6594
▁ISC	-6595
▁Irp	-6596
▁caf	-6597
Delay	-6598
nonce	-6599
▁mean	-6600
export	-6601
locked	-6602
▁timer	-6603
encoder	-6604
▁binary	-6605
▁digest	-6606
strerror	-6607
handshake	-6608
▁trackNum	-6609
LogMagickEvent	-6610
▁sa	-6611
CARD	-6612
amer	-6613
ross	-6614
stra	-6615
▁LEX	-6616
▁elf	-6617
Break	-6618
▁good	-6619
▁fseek	-6620
threads	-6621
iterator	-6622
sockaddr	-6623
▁against	-6624
dissector	-6625
▁transparent	-6626
53	-6627
ALU	-6628
TLE	-6629
_2_	-6630
ier	-6631
kew	-6632
▁BO	-6633
Bidi	-6634
apsh	-6635
book	-6636
poll	-6637
▁dib	-6638
SPECI	-6639
▁ZVAL	-6640
▁slen	-6641
SINGLE	-6642
letter	-6643
▁based	-6644
▁dsize	-6645
parency	-6646
▁effect	-6647
▁ensure	-6648
▁SCANNER	-6649
▁kTfLite	-6650
▁authentication	-6651
pin	-6652
▁DH	-6653
▁RT	-6654
TING	-6655
▁tsk	-6656
thumb	-6657
stroke	-6658
substr	-6659
COMMAND	-6660
Generic	-6661
Dimension	-6662
authentic	-6663
▁fragment	-6664
▁mismatch	-6665
▁identifier	-6666
wp	-6667
BRO	-6668
SEQ	-6669
cre	-6670
▁nf	-6671
▁sl	-6672
▁200	-6673
COMPAT	-6674
invarg	-6675
CHANNEL	-6676
▁pixmap	-6677
Transform	-6678
*=	-6679
ark	-6680
ous	-6681
tbl	-6682
▁DW	-6683
Meta	-6684
▁job	-6685
engine	-6686
tached	-6687
CONTEXT	-6688
▁rotated	-6689
▁written	-6690
496	-6691
PCM	-6692
▁%%	-6693
▁As	-6694
▁Po	-6695
====	-6696
Cert	-6697
][1]	-6698
coun	-6699
iate	-6700
▁ape	-6701
▁Free	-6702
THREAD	-6703
schema	-6704
uggest	-6705
▁caller	-6706
▁screen	-6707
▁integer	-6708
▁memmove	-6709
Parameters	-6710
<0	-6711
Py	-6712
Wh	-6713
fm	-6714
aps	-6715
MARK	-6716
bufs	-6717
extr	-6718
Equal	-6719
could	-6720
izing	-6721
▁WITH	-6722
▁elem	-6723
PREFIX	-6724
▁fetch	-6725
ncolors	-6726
▁remote	-6727
ALIGNMENT	-6728
▁reserved	-6729
▁expression	-6730
BPF	-6731
▁oc	-6732
SPEC	-6733
▁Imp	-6734
mouse	-6735
trail	-6736
▁cblk	-6737
GLOBAL	-6738
coming	-6739
LITERAL	-6740
▁region	-6741
▁syslog	-6742
▁unique	-6743
interval	-6744
▁cmdline	-6745
▁verbose	-6746
MM	-6747
UX	-6748
IMM	-6749
MET	-6750
▁FI	-6751
COND	-6752
dist	-6753
sans	-6754
▁Rec	-6755
▁tre	-6756
given	-6757
▁KERN	-6758
▁pcap	-6759
Action	-6760
Policy	-6761
▁media	-6762
▁upper	-6763
realloc	-6764
support	-6765
DataType	-6766
inflight	-6767
ormalize	-6768
received	-6769
construct	-6770
▁generate	-6771
ListLength	-6772
cq	-6773
MOV	-6774
REL	-6775
▁sm	-6776
RIFF	-6777
sPer	-6778
▁ipv	-6779
▁msr	-6780
▁tos	-6781
saddr	-6782
LITTLE	-6783
NORMAL	-6784
declar	-6785
lation	-6786
mitrans	-6787
▁reason	-6788
▁strstr	-6789
▁compute	-6790
▁starting	-6791
mitransparent	-6792
▁iv	-6793
[256	-6794
uple	-6795
▁UPD	-6796
▁dig	-6797
OLEAN	-6798
TRACK	-6799
Layout	-6800
column	-6801
Feature	-6802
▁Length	-6803
▁direct	-6804
▁checked	-6805
▁warning	-6806
substream	-6807
▁probably	-6808
▁bytestream	-6809
▁infilename	-6810
INC	-6811
IND	-6812
PAN	-6813
six	-6814
▁Le	-6815
1040	-6816
▁Buf	-6817
▁OPT	-6818
▁aux	-6819
AMPLE	-6820
Begin	-6821
RAISE	-6822
ached	-6823
▁1000	-6824
PRINTF	-6825
SizeOf	-6826
▁ASCII	-6827
▁embed	-6828
▁discard	-6829
rendering	-6830
strcasecmp	-6831
▁corrupted	-6832
▁ExceptionInfo	-6833
45	-6834
gfx	-6835
▁SN	-6836
▁dx	-6837
ceil	-6838
hdev	-6839
iocb	-6840
Proto	-6841
addrs	-6842
xattr	-6843
▁1024	-6844
▁samp	-6845
SECTOR	-6846
missing	-6847
▁kmalloc	-6848
▁constant	-6849
Unsupported	-6850
IDX	-6851
YNC	-6852
rib	-6853
▁'*	-6854
BIND	-6855
tpdf	-6856
curve	-6857
dirty	-6858
socks	-6859
xsize	-6860
ARRVAL	-6861
raming	-6862
scroll	-6863
▁Sigma	-6864
▁those	-6865
program	-6866
▁Append	-6867
▁weight	-6868
getValue	-6869
▁beginning	-6870
DirectClass	-6871
ittleEndian	-6872
▁NoCompression	-6873
StringInfoLength	-6874
0]	-6875
cgi	-6876
irr	-6877
▁pw	-6878
Resp	-6879
▁brc	-6880
CONTR	-6881
EQUAL	-6882
allel	-6883
▁emsg	-6884
Script	-6885
Service	-6886
▁UPDATE	-6887
▁handling	-6888
95	-6889
200	-6890
Mod	-6891
SKA	-6892
▁fb	-6893
SYNC	-6894
Skip	-6895
Zero	-6896
agma	-6897
esil	-6898
▁Run	-6899
▁See	-6900
▁bpf	-6901
▁iee	-6902
MATRO	-6903
▁XPATH	-6904
flatpak	-6905
▁memcmp	-6906
MATROSKA	-6907
▁program	-6908
▁decoding	-6909
▁hostname	-6910
BufferSize	-6911
SZ	-6912
XT	-6913
gy	-6914
BLE	-6915
der	-6916
dpi	-6917
fds	-6918
ird	-6919
our	-6920
▁=>	-6921
slen	-6922
umul	-6923
▁REQ	-6924
▁ins	-6925
▁won	-6926
FIRST	-6927
amera	-6928
olved	-6929
▁Some	-6930
▁Type	-6931
▁Insert	-6932
IoStatus	-6933
listener	-6934
▁devices	-6935
cn	-6936
BIS	-6937
xab	-6938
▁/=	-6939
▁OT	-6940
AUTO	-6941
RGBA	-6942
gpio	-6943
idge	-6944
oice	-6945
▁esd	-6946
▁kdc	-6947
▁pdb	-6948
PIXEL	-6949
cture	-6950
▁cups	-6951
▁gets	-6952
▁well	-6953
counts	-6954
COMPLEX	-6955
CONNECT	-6956
▁closed	-6957
ColormapIndex	-6958
▁configuration	-6959
ISO	-6960
JOB	-6961
mar	-6962
pmu	-6963
rev	-6964
▁'+	-6965
▁BT	-6966
▁TH	-6967
Auto	-6968
PLAY	-6969
coap	-6970
prep	-6971
Strip	-6972
agent	-6973
instr	-6974
scall	-6975
▁zone	-6976
▁Deter	-6977
▁whole	-6978
Contain	-6979
PROCESS	-6980
▁FILTER	-6981
▁buffers	-6982
▁typedef	-6983
▁gboolean	-6984
▁allocation	-6985
Ca	-6986
BIc	-6987
FIC	-6988
PID	-6989
chn	-6990
des	-6991
lap	-6992
mgr	-6993
vid	-6994
▁Go	-6995
AGMA	-6996
Addr	-6997
Lens	-6998
Post	-6999
Tree	-7000
refs	-7001
segs	-7002
▁How	-7003
▁Try	-7004
▁chm	-7005
ORBIS	-7006
enter	-7007
▁circ	-7008
before	-7009
should	-7010
single	-7011
▁black	-7012
polygon	-7013
through	-7014
▁OFendl	-7015
Operator	-7016
Interlace	-7017
▁checksum	-7018
▁missingargs	-7019
NA	-7020
Hel	-7021
ISH	-7022
SVG	-7023
day	-7024
ssp	-7025
▁la	-7026
LICY	-7027
TIVE	-7028
[0]=	-7029
strf	-7030
▁ifp	-7031
Final	-7032
ports	-7033
undle	-7034
finish	-7035
Manager	-7036
PRIVATE	-7037
▁dentry	-7038
▁checking	-7039
KernelContext	-7040
3]	-7041
VB	-7042
sx	-7043
xp	-7044
CAT	-7045
PKT	-7046
dep	-7047
pam	-7048
RIPT	-7049
USED	-7050
airo	-7051
chip	-7052
phys	-7053
wand	-7054
abort	-7055
atial	-7056
quote	-7057
▁give	-7058
▁sess	-7059
ACCEPT	-7060
endobj	-7061
encrypted	-7062
▁conversion	-7063
▁BitmapHeader	-7064
ImageProperties	-7065
=3	-7066
1.0	-7067
64>	-7068
▁Tx	-7069
▁kw	-7070
CONN	-7071
mine	-7072
STRUCT	-7073
Display	-7074
datalen	-7075
▁Invalid	-7076
'.	-7077
tk	-7078
ics	-7079
msh	-7080
ony	-7081
▁LE	-7082
▁Ph	-7083
fake	-7084
tags	-7085
▁<<=	-7086
▁MOD	-7087
▁via	-7088
ahead	-7089
fopen	-7090
ifest	-7091
ceeded	-7092
▁UChar	-7093
▁determ	-7094
▁random	-7095
arguments	-7096
iffeature	-7097
<>	-7098
clo	-7099
▁'1	-7100
inst	-7101
▁NET	-7102
erver	-7103
herit	-7104
▁pLtv	-7105
LENAME	-7106
icture	-7107
ropped	-7108
▁floor	-7109
▁lower	-7110
contains	-7111
▁IPPROTO	-7112
▁Determine	-7113
Sp	-7114
==1	-7115
ERY	-7116
ipe	-7117
udy	-7118
CbCr	-7119
META	-7120
Sort	-7121
csum	-7122
indx	-7123
lour	-7124
▁PAM	-7125
▁SCF	-7126
▁dat	-7127
▁pcx	-7128
▁prc	-7129
dated	-7130
▁FORC	-7131
▁axis	-7132
▁expr	-7133
XImage	-7134
▁ifdef	-7135
BOOLEAN	-7136
CONTROL	-7137
isspace	-7138
wordlen	-7139
▁checks	-7140
▁Compression	-7141
!_	-7142
51	-7143
▁SU	-7144
lied	-7145
plen	-7146
▁GIF	-7147
eline	-7148
posed	-7149
preter	-7150
SETTING	-7151
objects	-7152
receive	-7153
▁Number	-7154
▁within	-7155
TIFFRead	-7156
▁forward	-7157
16:	-7158
VIR	-7159
nxt	-7160
prc	-7161
EVAL	-7162
hold	-7163
ines	-7164
smtp	-7165
AGAIN	-7166
floor	-7167
resno	-7168
suite	-7169
▁basi	-7170
▁simp	-7171
random	-7172
Comment	-7173
cookies	-7174
▁common	-7175
▁enable	-7176
▁sraRgn	-7177
▁metrics	-7178
orization	-7179
ciphertext	-7180
▁currently	-7181
▁operation	-7182
Interpolate	-7183
resolutions	-7184
lendPixelTrait	-7185
HU	-7186
LX	-7187
0->	-7188
96,	-7189
ios	-7190
lld	-7191
myk	-7192
▁LM	-7193
▁MA	-7194
▁HID	-7195
▁LZW	-7196
Datum	-7197
Glyph	-7198
Recip	-7199
cairo	-7200
▁note	-7201
▁side	-7202
Append	-7203
Global	-7204
▁reader	-7205
▁script	-7206
▁datalen	-7207
requested	-7208
▁outHeader	-7209
LM	-7210
HEL	-7211
ves	-7212
▁'#	-7213
▁'2	-7214
▁PE	-7215
SCMP	-7216
SPER	-7217
heif	-7218
otor	-7219
▁spl	-7220
BUILD	-7221
MEDIA	-7222
using	-7223
iation	-7224
kernel	-7225
riBidi	-7226
sparse	-7227
▁cairo	-7228
▁rsize	-7229
▁bracket	-7230
Interface	-7231
▁SigmaValue	-7232
ParseGeometry	-7233
ITT	-7234
LZW	-7235
Win	-7236
fib	-7237
[4],	-7238
each	-7239
like	-7240
tems	-7241
Names	-7242
bands	-7243
▁fast	-7244
▁very	-7245
Cipher	-7246
sitive	-7247
cluster	-7248
seconds	-7249
▁PREFIX	-7250
▁intent	-7251
SeekBlob	-7252
catenate	-7253
▁sandbox	-7254
▁storage	-7255
available	-7256
OpKernelContext	-7257
SEC	-7258
alf	-7259
arm	-7260
duc	-7261
","%	-7262
fabs	-7263
▁16,	-7264
▁EAS	-7265
▁MAG	-7266
▁TLV	-7267
▁stats	-7268
▁style	-7269
NOMATCH	-7270
METADATA	-7271
coordinates	-7272
58	-7273
Fi	-7274
fat	-7275
▁fr	-7276
RENT	-7277
show	-7278
▁lim	-7279
clock	-7280
▁cifs	-7281
▁stbl	-7282
▁tcph	-7283
POLICY	-7284
labels	-7285
nested	-7286
QString	-7287
inition	-7288
▁Window	-7289
▁pParse	-7290
▁hardware	-7291
StringInfoDatum	-7292
▁MagickSignature	-7293
['	-7294
kw	-7295
->_	-7296
_4_	-7297
bdf	-7298
ecc	-7299
nla	-7300
ola	-7301
pwd	-7302
▁'5	-7303
▁VM	-7304
▁cy	-7305
▁ml	-7306
ANGO	-7307
Make	-7308
[0]*	-7309
hook	-7310
uuid	-7311
▁eap	-7312
▁org	-7313
route	-7314
▁LDNS	-7315
▁regn	-7316
▁snmp	-7317
▁trak	-7318
binary	-7319
istory	-7320
passwd	-7321
▁htons	-7322
generic	-7323
isolate	-7324
maximum	-7325
minimum	-7326
otorola	-7327
▁Process	-7328
68	-7329
RX	-7330
rf	-7331
SLI	-7332
\"%	-7333
irm	-7334
kes	-7335
rdn	-7336
tcd	-7337
▁"_	-7338
▁qp	-7339
Priv	-7340
SKIP	-7341
gcry	-7342
rbufp	-7343
utton	-7344
▁NOTE	-7345
lasses	-7346
▁provi	-7347
GetNext	-7348
stitute	-7349
▁Verify	-7350
▁layout	-7351
▁select	-7352
selector	-7353
▁spprintf	-7354
69	-7355
nn	-7356
FIF	-7357
FSG	-7358
MIS	-7359
pcx	-7360
▁BM	-7361
hlen	-7362
sidx	-7363
soft	-7364
▁Par	-7365
▁dff	-7366
▁due	-7367
▁gid	-7368
10000	-7369
raise	-7370
xFFFF	-7371
▁SIZE	-7372
▁traf	-7373
mation	-7374
pixmap	-7375
▁defer	-7376
wrapper	-7377
▁inside	-7378
▁pefree	-7379
Absolute	-7380
▁flatpak	-7381
▁strlcpy	-7382
ipCompression	-7383
ope	-7384
POST	-7385
leep	-7386
▁ear	-7387
amily	-7388
arger	-7389
steps	-7390
Wrapper	-7391
include	-7392
namelen	-7393
success	-7394
Overflow	-7395
▁Destroy	-7396
▁returns	-7397
StatusType	-7398
▁TIFFError	-7399
6.	-7400
UG	-7401
Ctx	-7402
KGD	-7403
ilt	-7404
sax	-7405
CHOR	-7406
EXPE	-7407
Plan	-7408
bulk	-7409
erge	-7410
iCCP	-7411
more	-7412
putc	-7413
tRNS	-7414
▁IPV	-7415
SPACK	-7416
pairs	-7417
▁strm	-7418
QUENCE	-7419
expose	-7420
inputs	-7421
▁finish	-7422
▁scheme	-7423
▁distance	-7424
destination	-7425
ReadBlobFloat	-7426
ev	-7427
,2,	-7428
>",	-7429
GUI	-7430
▁BZ	-7431
Samp	-7432
hmac	-7433
▁tot	-7434
▁mutt	-7435
▁quot	-7436
reduce	-7437
▁SUCCESS	-7438
CCS	-7439
PRI	-7440
XMP	-7441
cxt	-7442
uit	-7443
wap	-7444
IENT	-7445
Prop	-7446
_32,	-7447
traf	-7448
▁XMP	-7449
▁pci	-7450
▁rds	-7451
dtype	-7452
grify	-7453
moved	-7454
00001*	-7455
optlen	-7456
phpurl	-7457
▁CLONE	-7458
▁SCORE	-7459
▁driver	-7460
>>>>>>>>	-7461
▁changes	-7462
=0.00001*	-7463
MagickMax	-7464
Parameter	-7465
algorithm	-7466
recipients	-7467
axCompression	-7468
MTP	-7469
QUE	-7470
nid	-7471
▁Mo	-7472
▁16:	-7473
▁IFD	-7474
▁mnt	-7475
dsize	-7476
▁GLOB	-7477
▁warn	-7478
Column	-7479
effect	-7480
▁iinfo	-7481
buffers	-7482
keyring	-7483
▁affine	-7484
▁larger	-7485
▁generated	-7486
ErrorMessage	-7487
Hex	-7488
xxh	-7489
▁jh	-7490
▁tt	-7491
PUSH	-7492
rsrc	-7493
OURCC	-7494
vflag	-7495
▁html	-7496
▁rlvl	-7497
▁sRGB	-7498
FORMED	-7499
[1]<<8	-7500
istics	-7501
▁known	-7502
▁video	-7503
▁FOURCC	-7504
▁expand	-7505
▁nextIP	-7506
▁FriBidi	-7507
▁However	-7508
▁logging	-7509
MALFORMED	-7510
TIMESTAMP	-7511
1"	-7512
RF	-7513
2",	-7514
Old	-7515
met	-7516
▁'?	-7517
edit	-7518
▁BIO	-7519
slash	-7520
sumer	-7521
trunc	-7522
▁Exiv	-7523
▁conv	-7524
▁mbed	-7525
ssless	-7526
tables	-7527
▁fails	-7528
matched	-7529
▁suffix	-7530
▁appropri	-7531
▁relative	-7532
79	-7533
bf	-7534
DOW	-7535
DPX	-7536
Elf	-7537
prm	-7538
▁DO	-7539
DBIc	-7540
Proc	-7541
live	-7542
▁Fix	-7543
▁inp	-7544
▁jmp	-7545
BEGIN	-7546
DIGIT	-7547
MOUSE	-7548
QUERY	-7549
Reset	-7550
inner	-7551
wards	-7552
▁COPY	-7553
▁ieee	-7554
APPEND	-7555
Enable	-7556
▁Group	-7557
Gravity	-7558
▁require	-7559
▁MemoryInfo	-7560
▁successful	-7561
▁]	-7562
CTP	-7563
Det	-7564
Non	-7565
bro	-7566
hes	-7567
mtu	-7568
yts	-7569
▁JP	-7570
ROUT	-7571
VENT	-7572
repr	-7573
seed	-7574
ceeds	-7575
slots	-7576
where	-7577
▁ldns	-7578
ording	-7579
worker	-7580
▁factor	-7581
▁things	-7582
Security	-7583
▁writing	-7584
▁Validate	-7585
KO	-7586
OV	-7587
Use	-7588
psk	-7589
vui	-7590
▁50	-7591
OPER	-7592
Safe	-7593
sctp	-7594
thdr	-7595
▁IDS	-7596
ducer	-7597
▁Stub	-7598
▁perf	-7599
▁smtp	-7600
▁sort	-7601
▁view	-7602
▁yang	-7603
Console	-7604
▁MSPACK	-7605
▁codegen	-7606
PixelInfo	-7607
UNDEFINED	-7608
direction	-7609
/*	-7610
ji	-7611
did	-7612
▁Sp	-7613
▁dl	-7614
▁el	-7615
=1.0	-7616
stbl	-7617
▁Out	-7618
▁ihe	-7619
CLOSE	-7620
ulong	-7621
unmap	-7622
▁Save	-7623
Native	-7624
PRINTK	-7625
Control	-7626
▁Ignore	-7627
▁nbytes	-7628
▁virtio	-7629
SETTINGS	-7630
▁objects	-7631
FP	-7632
Ent	-7633
HEV	-7634
Req	-7635
MIME	-7636
OVER	-7637
PEND	-7638
WRAP	-7639
[3].	-7640
axis	-7641
mems	-7642
▁MLX	-7643
▁com	-7644
▁mch	-7645
Store	-7646
VERSE	-7647
Video	-7648
based	-7649
basic	-7650
▁ALOG	-7651
▁RExC	-7652
ACTION	-7653
STRICT	-7654
adjust	-7655
▁inclu	-7656
Session	-7657
sprintf	-7658
▁longer	-7659
▁netdev	-7660
▁simple	-7661
▁sparse	-7662
altsetting	-7663
42	-7664
ASL	-7665
SIX	-7666
izz	-7667
nlh	-7668
▁Sy	-7669
movi	-7670
▁ACP	-7671
▁IVD	-7672
ImGui	-7673
UMENT	-7674
regex	-7675
stuff	-7676
▁ATTR	-7677
▁True	-7678
▁supp	-7679
concat	-7680
splice	-7681
anguage	-7682
tection	-7683
▁opaque	-7684
▁shared	-7685
▁talloc	-7686
▁prepare	-7687
▁routing	-7688
properties	-7689
information	-7690
▁unexpected	-7691
Act	-7692
IES	-7693
Ind	-7694
JNG	-7695
TUN	-7696
gre	-7697
▁KD	-7698
▁MT	-7699
▁PS	-7700
▁bd	-7701
0,0,	-7702
CBCR	-7703
COMM	-7704
TRUN	-7705
[3]*	-7706
comm	-7707
ofst	-7708
▁bcm	-7709
BLACK	-7710
FOUND	-7711
frags	-7712
▁argp	-7713
OPCODE	-7714
maging	-7715
▁ntohs	-7716
Network	-7717
andlers	-7718
▁public	-7719
Progress	-7720
▁calling	-7721
PARAMETER	-7722
semitransparent	-7723
SG	-7724
XP	-7725
acm	-7726
acy	-7727
lop	-7728
siz	-7729
Down	-7730
LETE	-7731
lush	-7732
mmap	-7733
snmp	-7734
▁32:	-7735
▁had	-7736
▁jsv	-7737
TOKEN	-7738
bcast	-7739
▁Curl	-7740
▁band	-7741
SHARED	-7742
rences	-7743
shared	-7744
▁nlmsg	-7745
getline	-7746
▁leading	-7747
▁receive	-7748
▁SeekBlob	-7749
▁disabled	-7750
▁skipping	-7751
▁validate	-7752
,_	-7753
rw	-7754
25_	-7755
>>\	-7756
CSR	-7757
DRV	-7758
[9]	-7759
egg	-7760
egr	-7761
▁5,	-7762
▁bb	-7763
▁hu	-7764
JECT	-7765
LZMA	-7766
[1]*	-7767
[2]*	-7768
[4].	-7769
pChn	-7770
▁RES	-7771
▁squ	-7772
STATS	-7773
async	-7774
descr	-7775
▁BOOL	-7776
GetDPX	-7777
Values	-7778
secure	-7779
▁fword	-7780
GetById	-7781
connssl	-7782
sandbox	-7783
subject	-7784
▁LOGMEM	-7785
▁libssh	-7786
PASSWORD	-7787
basename	-7788
precinct	-7789
▁negative	-7790
▁subflags	-7791
▁magnified	-7792
▁separator	-7793
QuantumScale	-7794
▁Concatenate	-7795
▁implemented	-7796
LoadImagesTag	-7797
GetDPXProperty	-7798
4-	-7799
127	-7800
caf	-7801
ifr	-7802
nsec	-7803
walk	-7804
▁Ext	-7805
▁cat	-7806
RIGHT	-7807
pitch	-7808
rocal	-7809
▁turn	-7810
▁rdesc	-7811
colormaps	-7812
59	-7813
>=	-7814
Rel	-7815
XOR	-7816
▁28	-7817
▁vq	-7818
ATOR	-7819
Done	-7820
HERE	-7821
▁VIR	-7822
▁cam	-7823
▁lzx	-7824
▁win	-7825
HEVCD	-7826
RESET	-7827
▁WLog	-7828
Tables	-7829
Verify	-7830
▁ALLOC	-7831
capable	-7832
locator	-7833
Duration	-7834
▁greater	-7835
▁outside	-7836
AnyToQuantum	-7837
▁curCodeBlock	-7838
▁RLECompression	-7839
OOB	-7840
pie	-7841
rcu	-7842
tvb	-7843
EXTR	-7844
Exec	-7845
OMIT	-7846
Seek	-7847
usec	-7848
▁att	-7849
[256]	-7850
erial	-7851
inbuf	-7852
ldblk	-7853
princ	-7854
▁BYTE	-7855
Filled	-7856
Plugin	-7857
▁ALOGE	-7858
▁brcmf	-7859
▁Buffer	-7860
▁counter	-7861
Generator	-7862
%+	-7863
GT	-7864
MF	-7865
PA	-7866
IFD	-7867
NVM	-7868
web	-7869
▁fe	-7870
SCAL	-7871
Stat	-7872
][0]	-7873
=1.0*	-7874
aving	-7875
clean	-7876
opher	-7877
▁flip	-7878
▁phdr	-7879
▁IOCTL	-7880
▁place	-7881
TIMEOUT	-7882
respond	-7883
seccomp	-7884
spatial	-7885
▁backup	-7886
▁labels	-7887
numcomps	-7888
▁readlen	-7889
▁restart	-7890
playState	-7891
▁optional	-7892
▁StringVal	-7893
▁calculate	-7894
OptionBlock	-7895
GetImageProperty	-7896
Ok	-7897
nf	-7898
120	-7899
Clo	-7900
MSC	-7901
▁rq	-7902
BODY	-7903
INTR	-7904
errp	-7905
ngle	-7906
rack	-7907
virt	-7908
▁Key	-7909
▁mul	-7910
▁Also	-7911
▁comb	-7912
Loader	-7913
Scheme	-7914
▁65535	-7915
▁words	-7916
reading	-7917
▁passed	-7918
▁Default	-7919
▁delimit	-7920
▁example	-7921
Reciprocal	-7922
▁determine	-7923
▁StringInfo	-7924
1=	-7925
Ep	-7926
HD	-7927
GRA	-7928
chm	-7929
crt	-7930
thd	-7931
▁ob	-7932
▁sd	-7933
DOWN	-7934
Eval	-7935
mean	-7936
Allow	-7937
FIXED	-7938
Fixed	-7939
YCBCR	-7940
[0]->	-7941
▁intf	-7942
memcpy	-7943
pubkey	-7944
vendor	-7945
UNICODE	-7946
▁serial	-7947
download	-7948
▁Restore	-7949
allocated	-7950
▁construct	-7951
▁appropriate	-7952
▁description	-7953
▁reinterpret	-7954
▁GetPixelIndex	-7955
ImageColorspace	-7956
▁JPEGCompression	-7957
jh	-7958
175	-7959
LEM	-7960
ear	-7961
tep	-7962
+1],	-7963
DIFF	-7964
▁'"'	-7965
▁'+'	-7966
Black	-7967
Bound	-7968
SLICE	-7969
pdata	-7970
▁JUMP	-7971
Frames	-7972
▁apply	-7973
OLUTION	-7974
Setting	-7975
reverse	-7976
Received	-7977
▁specific	-7978
▁encrypted	-7979
LF	-7980
ALT	-7981
Sec	-7982
Sof	-7983
lsb	-7984
▁~0	-7985
JUMP	-7986
Vert	-7987
ckID	-7988
ctet	-7989
same	-7990
shop	-7991
slow	-7992
▁'*'	-7993
▁DMA	-7994
▁cra	-7995
cmpts	-7996
pExpr	-7997
▁JBIG	-7998
CODING	-7999
bidden	-8000
little	-8001
▁inner	-8002
▁mouse	-8003
otoshop	-8004
increment	-8005
▁broadcast	-8006
▁TfLiteTensor	-8007
▁FaxCompression	-8008
4]	-8009
52	-8010
5]	-8011
Ma	-8012
ti	-8013
wl	-8014
CPU	-8015
,1,&	-8016
ives	-8017
lies	-8018
ASYNC	-8019
▁DBUG	-8020
▁alen	-8021
ACCESS	-8022
Remove	-8023
Single	-8024
▁exact	-8025
Percept	-8026
ARCONFIG	-8027
quantize	-8028
▁Generate	-8029
BV	-8030
Ass	-8031
Dqt	-8032
RJS	-8033
fio	-8034
LIBR	-8035
PHAR	-8036
STEP	-8037
[12]	-8038
bort	-8039
ebml	-8040
envc	-8041
lank	-8042
plte	-8043
rank	-8044
rary	-8045
▁But	-8046
IDENT	-8047
LICIT	-8048
major	-8049
▁Byte	-8050
▁ceil	-8051
▁libc	-8052
▁wrap	-8053
SIGNED	-8054
TARGET	-8055
▁Coder	-8056
inflate	-8057
▁Client	-8058
consumed	-8059
override	-8060
▁mbedtls	-8061
▁endpoint	-8062
▁Transform	-8063
▁direction	-8064
certificate	-8065
▁SetQuantum	-8066
UnsignedLong	-8067
▁orientation	-8068
ALG	-8069
rem	-8070
▁Op	-8071
Tran	-8072
ious	-8073
▁apr	-8074
boxes	-8075
codes	-8076
dered	-8077
imize	-8078
ioBuf	-8079
ually	-8080
▁Bool	-8081
▁DATA	-8082
▁HMAC	-8083
▁Load	-8084
▁care	-8085
CONTIN	-8086
CREATE	-8087
RESSED	-8088
SIMPLE	-8089
printk	-8090
▁items	-8091
▁SELECT	-8092
▁hdrlen	-8093
▁estrndup	-8094
initialized	-8095
unsupported	-8096
.1	-8097
AAC	-8098
Agg	-8099
CAL	-8100
els	-8101
eto	-8102
fid	-8103
foc	-8104
fwd	-8105
mbs	-8106
vcd	-8107
▁'<	-8108
▁'>	-8109
Dist	-8110
MANY	-8111
SENT	-8112
atts	-8113
norm	-8114
ntmp	-8115
▁abs	-8116
▁lex	-8117
creds	-8118
▁0000	-8119
▁DBUS	-8120
▁JFIF	-8121
freeze	-8122
strain	-8123
suites	-8124
LIBRARY	-8125
ceildiv	-8126
complex	-8127
ificant	-8128
▁StubGL	-8129
StreamInfo	-8130
▁CoderError	-8131
RP	-8132
tb	-8133
CTM	-8134
OPE	-8135
inp	-8136
too	-8137
▁da	-8138
Cent	-8139
Hash	-8140
NOTE	-8141
VARI	-8142
aset	-8143
unch	-8144
▁KVM	-8145
Serial	-8146
▁pinfo	-8147
▁share	-8148
ADDRESS	-8149
Wavpack	-8150
▁active	-8151
▁groups	-8152
COMPRESSED	-8153
▁variables	-8154
ibleReciprocal	-8155
!*	-8156
'"	-8157
49	-8158
67	-8159
VR	-8160
kb	-8161
dfl	-8162
rpc	-8163
xap	-8164
▁31	-8165
STMT	-8166
WARD	-8167
dccp	-8168
▁ENC	-8169
▁WAR	-8170
▁icu	-8171
▁ogs	-8172
▁ops	-8173
PANIC	-8174
ofile	-8175
branch	-8176
loader	-8177
Initial	-8178
prepare	-8179
distance	-8180
▁subject	-8181
parameter	-8182
yyscanner	-8183
Navigation	-8184
▁GetPixelRed	-8185
decoderConfig	-8186
"-	-8187
bz	-8188
ACL	-8189
INV	-8190
eve	-8191
rle	-8192
▁his	-8193
atory	-8194
ivity	-8195
leted	-8196
linux	-8197
▁Ctrl	-8198
▁diag	-8199
SEARCH	-8200
ingBox	-8201
issuer	-8202
▁ImGui	-8203
▁around	-8204
▁ihevcd	-8205
▁unlock	-8206
nsections	-8207
RESOLUTION	-8208
bw	-8209
CRC	-8210
GID	-8211
asy	-8212
cei	-8213
ftp	-8214
tsk	-8215
▁AC	-8216
▁HW	-8217
▁^=	-8218
TERM	-8219
plus	-8220
▁JPC	-8221
▁ast	-8222
▁pfb	-8223
CCITT	-8224
elist	-8225
mbyte	-8226
▁IEEE	-8227
▁PEEK	-8228
▁ring	-8229
▁seen	-8230
]='\0'	-8231
pieces	-8232
uffman	-8233
fprintf	-8234
picture	-8235
▁outbuf	-8236
▁syntax	-8237
manifest	-8238
▁Extract	-8239
▁escaped	-8240
Character	-8241
uggestion	-8242
▁StringTo	-8243
▁pointers	-8244
▁powerbuf	-8245
▁GetTensor	-8246
OpaqueAlpha	-8247
▁GetDlgItem	-8248
▁transaction	-8249
.4	-8250
82	-8251
INO	-8252
TIT	-8253
[32	-8254
toh	-8255
▁80	-8256
▁BY	-8257
cdef	-8258
good	-8259
roid	-8260
yond	-8261
▁PID	-8262
▁XFS	-8263
▁ccp	-8264
▁mal	-8265
▁pat	-8266
JERRY	-8267
loaded	-8268
▁Since	-8269
RUNTIME	-8270
escaped	-8271
ndatory	-8272
numeric	-8273
▁charset	-8274
MULTICAST	-8275
▁cupsFile	-8276
WaveHeader	-8277
▁interrupt	-8278
CNT	-8279
EOP	-8280
MES	-8281
jit	-8282
▁SY	-8283
▁hw	-8284
▁rd	-8285
-0.5	-8286
HTML	-8287
JSON	-8288
SAFE	-8289
TERN	-8290
asoc	-8291
cinf	-8292
rend	-8293
▁NBD	-8294
Throw	-8295
plain	-8296
▁ICMP	-8297
▁quit	-8298
▁rsvp	-8299
FIELDS	-8300
Volume	-8301
covery	-8302
errmsg	-8303
reject	-8304
writer	-8305
▁CONNE	-8306
▁assoc	-8307
▁owner	-8308
▁sched	-8309
discard	-8310
machine	-8311
mogrify	-8312
trusted	-8313
▁Should	-8314
▁unlink	-8315
MSBShort	-8316
▁Xcursor	-8317
▁commands	-8318
%%	-8319
10,	-8320
ASK	-8321
DSA	-8322
HCI	-8323
ILL	-8324
ROT	-8325
Sym	-8326
[12	-8327
acb	-8328
ccp	-8329
ppp	-8330
wid	-8331
▁"0	-8332
▁3]	-8333
▁vc	-8334
PKCS	-8335
apic	-8336
kind	-8337
want	-8338
▁udf	-8339
Total	-8340
UChar	-8341
colnr	-8342
graph	-8343
reach	-8344
▁ones	-8345
RDONLY	-8346
Schema	-8347
UPDATE	-8348
commit	-8349
▁iface	-8350
▁newsk	-8351
Private	-8352
variant	-8353
▁Failed	-8354
Quantize	-8355
validate	-8356
ckDataSize	-8357
decompress	-8358
▁malformed	-8359
▁unsupported	-8360
%*	-8361
73	-8362
QP	-8363
1,&	-8364
LVL	-8365
UPT	-8366
bss	-8367
▁GC	-8368
ells	-8369
rint	-8370
▁pps	-8371
▁sdb	-8372
ByVal	-8373
MENTS	-8374
QUEUE	-8375
SHAKE	-8376
hesis	-8377
BITMAP	-8378
CompOp	-8379
XColor	-8380
apshot	-8381
import	-8382
passes	-8383
CFormat	-8384
OBJPROP	-8385
OPENSSL	-8386
mpleted	-8387
reamble	-8388
▁allows	-8389
▁trying	-8390
zipentry	-8391
▁Adapter	-8392
▁partial	-8393
▁updated	-8394
HANDSHAKE	-8395
processed	-8396
▁redirect	-8397
▁testcase	-8398
CompOpEval	-8399
CU	-8400
dff	-8401
slt	-8402
▁NF	-8403
IZED	-8404
Stop	-8405
oter	-8406
▁'#'	-8407
▁beg	-8408
▁smb	-8409
▁tga	-8410
ADMIN	-8411
TITLE	-8412
mData	-8413
System	-8414
▁VALUE	-8415
▁ioBuf	-8416
CONTENT	-8417
reorder	-8418
▁detect	-8419
▁Address	-8420
challenge	-8421
/8	-8422
BS	-8423
BY	-8424
VO	-8425
fx	-8426
DEN	-8427
cpi	-8428
nic	-8429
scx	-8430
smi	-8431
smp	-8432
▁*,	-8433
▁vA	-8434
=\"%	-8435
IOMX	-8436
bKGD	-8437
iptr	-8438
loca	-8439
mate	-8440
osen	-8441
sapi	-8442
▁rsa	-8443
▁sas	-8444
▁say	-8445
agged	-8446
csock	-8447
istry	-8448
spool	-8449
▁AUTO	-8450
▁rbuf	-8451
▁seed	-8452
▁zlib	-8453
ARCHIVE	-8454
EXPECTED	-8455
deflated	-8456
▁getreal	-8457
▁strlcat	-8458
UNSUPPORTED	-8459
3*	-8460
65	-8461
NL	-8462
Nr	-8463
Su	-8464
AVA	-8465
ETH	-8466
PCI	-8467
_64	-8468
adi	-8469
tod	-8470
vga	-8471
▁5:	-8472
▁:=	-8473
EXCL	-8474
Impl	-8475
atin	-8476
peek	-8477
▁BUG	-8478
Slice	-8479
▁away	-8480
▁fork	-8481
events	-8482
locale	-8483
outbuf	-8484
▁doing	-8485
▁depend	-8486
finished	-8487
modified	-8488
▁logical	-8489
▁proceed	-8490
▁ThrowTIFF	-8491
DK	-8492
xb	-8493
Big	-8494
ORK	-8495
UNP	-8496
Url	-8497
dyn	-8498
eth	-8499
ttl	-8500
yyn	-8501
▁*>	-8502
▁GG	-8503
▁gg	-8504
LNUM	-8505
None	-8506
Only	-8507
WEBP	-8508
alog	-8509
ases	-8510
freq	-8511
raid	-8512
▁LCS	-8513
▁TGA	-8514
▁crc	-8515
ATURE	-8516
Angle	-8517
blank	-8518
ofree	-8519
▁User	-8520
LAYERS	-8521
Socket	-8522
WINDOW	-8523
dither	-8524
switch	-8525
▁cause	-8526
▁linen	-8527
▁negot	-8528
▁works	-8529
NOTSUPP	-8530
WRAPPER	-8531
allowed	-8532
partial	-8533
▁VORBIS	-8534
▁redraw	-8535
▁signed	-8536
▁theend	-8537
variable	-8538
ImageBase	-8539
▁extended	-8540
compatible	-8541
▁statement	-8542
application	-8543
▁CHECKPOINT	-8544
▁everything	-8545
▁ScaleQuantumTo	-8546
/4	-8547
BSD	-8548
UAL	-8549
dle	-8550
oid	-8551
oom	-8552
sdb	-8553
▁JS	-8554
▁gu	-8555
DONE	-8556
URCE	-8557
getC	-8558
pcie	-8559
ssid	-8560
wide	-8561
▁acb	-8562
▁ask	-8563
▁lua	-8564
▁rhs	-8565
union	-8566
ATOMIC	-8567
MAGING	-8568
details	-8569
▁better	-8570
▁beyond	-8571
▁loaded	-8572
▁sshbuf	-8573
']	-8574
JP	-8575
BCM	-8576
CAN	-8577
NOM	-8578
SMB	-8579
ipp	-8580
sts	-8581
▁SK	-8582
shdr	-8583
strn	-8584
▁urb	-8585
,0,0,	-8586
ACKET	-8587
QUANT	-8588
UWORD	-8589
ulate	-8590
▁MAKE	-8591
▁room	-8592
ACTIVE	-8593
Access	-8594
SOCKET	-8595
Weight	-8596
leader	-8597
unlink	-8598
▁https	-8599
▁separ	-8600
▁sizes	-8601
compose	-8602
ipeline	-8603
▁Render	-8604
▁bucket	-8605
▁entire	-8606
NoImages	-8607
segments	-8608
▁enqueue	-8609
dependent	-8610
extradata	-8611
onochrome	-8612
IndexQueue	-8613
Initialize	-8614
GetAuthentic	-8615
-0	-8616
cms	-8617
imm	-8618
▁::	-8619
Work	-8620
inux	-8621
▁PKT	-8622
▁REG	-8623
▁bug	-8624
▁oid	-8625
▁svg	-8626
aries	-8627
ategy	-8628
gname	-8629
iface	-8630
nlmsg	-8631
ratio	-8632
▁FLAC	-8633
▁disk	-8634
▁rsrc	-8635
▁sets	-8636
Normal	-8637
subdir	-8638
▁fopen	-8639
FRIBIDI	-8640
unicode	-8641
▁starts	-8642
datasize	-8643
onlyargs	-8644
▁IMAGING	-8645
▁requests	-8646
▁Extension	-8647
▁terminate	-8648
▁environment	-8649
57	-8650
gi	-8651
POP	-8652
[%,	-8653
\0"	-8654
ech	-8655
squ	-8656
tid	-8657
▁'3	-8658
▁']	-8659
idct	-8660
midi	-8661
mime	-8662
zlib	-8663
▁Opt	-8664
▁SDH	-8665
▁oss	-8666
%*[%,	-8667
hello	-8668
hires	-8669
negot	-8670
parts	-8671
BROKEN	-8672
SQLITE	-8673
plugin	-8674
▁nargs	-8675
Complex	-8676
PATTERN	-8677
SECTION	-8678
STCLASS	-8679
appendl	-8680
▁Sample	-8681
ARGUMENT	-8682
Compress	-8683
required	-8684
uplicate	-8685
▁Content	-8686
▁logputs	-8687
▁seccomp	-8688
composite	-8689
▁inHeader	-8690
▁standard	-8691
EOPNOTSUPP	-8692
ShortPixel	-8693
▁application	-8694
▁cancellable	-8695
▁rfbEncoding	-8696
37	-8697
?"	-8698
176	-8699
DIV	-8700
DLS	-8701
PAD	-8702
emb	-8703
▁48	-8704
▁CN	-8705
▁PP	-8706
FULL	-8707
pLtv	-8708
▁OUT	-8709
ICAST	-8710
olver	-8711
▁serv	-8712
SOURCE	-8713
▁regex	-8714
▁units	-8715
ropping	-8716
Filename	-8717
▁ONIGERR	-8718
▁SyncImage	-8719
▁incorrect	-8720
▁runlength	-8721
BoundingBox	-8722
▁WebFeature	-8723
▁immediately	-8724
▁GetPixelGreen	-8725
HI	-8726
ADM	-8727
CNF	-8728
Cmd	-8729
TMP	-8730
avc	-8731
bor	-8732
sas	-8733
sip	-8734
xmp	-8735
▁fh	-8736
▁ul	-8737
▁zz	-8738
/2.0	-8739
HUFF	-8740
IRPD	-8741
LAST	-8742
vars	-8743
▁Ass	-8744
▁suc	-8745
▁yyn	-8746
inder	-8747
miINT	-8748
Camera	-8749
RBREAK	-8750
STATIC	-8751
Screen	-8752
Switch	-8753
▁Print	-8754
▁nodes	-8755
IRPDCAP	-8756
package	-8757
▁Export	-8758
▁ENABLED	-8759
▁aligned	-8760
LSBEndian	-8761
SIGNATURE	-8762
startcode	-8763
▁operator	-8764
blockalign	-8765
▁additional	-8766
AlphaQuantum	-8767
ReadImageData	-8768
▁ReadBlobFloat	-8769
EndianIndicator	-8770
▁ReadBlobDouble	-8771
12:	-8772
FER	-8773
TIO	-8774
DONT	-8775
RATE	-8776
Test	-8777
cptr	-8778
▁Bad	-8779
▁bps	-8780
▁etc	-8781
▁leg	-8782
cimal	-8783
minus	-8784
▁LZMA	-8785
▁Node	-8786
▁edge	-8787
▁seek	-8788
Delete	-8789
running	-8790
▁cluster	-8791
sampleTable	-8792
▁initialized	-8793
rn	-8794
zy	-8795
,4,	-8796
191	-8797
asc	-8798
att	-8799
cid	-8800
▁EM	-8801
▁Io	-8802
▁SV	-8803
▁ll	-8804
Frag	-8805
Mult	-8806
nRow	-8807
vcol	-8808
▁ETH	-8809
▁HER	-8810
▁aac	-8811
▁far	-8812
----+	-8813
Timer	-8814
inish	-8815
izzle	-8816
▁KADM	-8817
▁OSAL	-8818
▁Vdbe	-8819
▁WARN	-8820
egrity	-8821
ifname	-8822
strTmp	-8823
▁dense	-8824
unshare	-8825
▁resize	-8826
IoBuffer	-8827
NumberOf	-8828
shutdown	-8829
▁Inherit	-8830
Precision	-8831
Rendering	-8832
PHOTOMETRIC	-8833
▁photometric	-8834
An	-8835
]:	-8836
621	-8837
SRC	-8838
▁OR	-8839
▁ve	-8840
Pool	-8841
aptr	-8842
most	-8843
nump	-8844
vals	-8845
▁BUF	-8846
▁git	-8847
MODUL	-8848
assis	-8849
uture	-8850
▁BSON	-8851
▁hlen	-8852
▁patch	-8853
raction	-8854
Expected	-8855
Response	-8856
▁reached	-8857
▁sending	-8858
structure	-8859
▁parallel	-8860
255	-8861
32*	-8862
DMA	-8863
Lib	-8864
cfm	-8865
die	-8866
nil	-8867
▁Pa	-8868
▁QT	-8869
▁er	-8870
▁pl	-8871
High	-8872
PLAN	-8873
onts	-8874
quir	-8875
wave	-8876
▁>>=	-8877
▁ipc	-8878
Model	-8879
YCbCr	-8880
speed	-8881
▁GPAC	-8882
▁PROF	-8883
▁dctx	-8884
▁heif	-8885
▁llen	-8886
▁onig	-8887
RESPON	-8888
frozen	-8889
ribidi	-8890
unpack	-8891
urther	-8892
▁makes	-8893
Release	-8894
Xcursor	-8895
binding	-8896
compare	-8897
▁PRAGMA	-8898
▁Resize	-8899
▁bcount	-8900
extended	-8901
mpletion	-8902
regmatch	-8903
BITFIELDS	-8904
separator	-8905
▁BImgBuff	-8906
▁detected	-8907
▁truncated	-8908
ChunkHeader	-8909
BackgroundColor	-8910
1[	-8911
BM	-8912
TL	-8913
XY	-8914
426	-8915
USB	-8916
cle	-8917
dot	-8918
enu	-8919
POLL	-8920
ends	-8921
iccp	-8922
limb	-8923
prox	-8924
ught	-8925
wddx	-8926
▁ICC	-8927
mysql	-8928
ntohl	-8929
▁Rect	-8930
▁vcpu	-8931
BINARY	-8932
needed	-8933
phrase	-8934
timing	-8935
▁False	-8936
▁Table	-8937
▁round	-8938
▁family	-8939
preserve	-8940
▁details	-8941
character	-8942
connected	-8943
▁rfbClient	-8944
QStringLiteral	-8945
83	-8946
Br	-8947
GC	-8948
sq	-8949
']=	-8950
GER	-8951
Gif	-8952
ICC	-8953
IRO	-8954
LYS	-8955
PAY	-8956
fff	-8957
▁'6	-8958
▁PL	-8959
CING	-8960
DISK	-8961
TILE	-8962
WORK	-8963
help	-8964
sent	-8965
that	-8966
▁COL	-8967
▁egg	-8968
▁pdu	-8969
ALERT	-8970
CLEAN	-8971
CLEAR	-8972
DENOM	-8973
bling	-8974
▁AVRC	-8975
▁Call	-8976
▁emit	-8977
▁envs	-8978
Digest	-8979
OTHERS	-8980
mapped	-8981
usbdev	-8982
▁FRAME	-8983
Dynamic	-8984
POINTER	-8985
QUANTUM	-8986
atterns	-8987
gravity	-8988
letters	-8989
printer	-8990
▁epbuff	-8991
▁itself	-8992
▁tfpdef	-8993
▁levelno	-8994
▁DataType	-8995
▁contents	-8996
SampleSize	-8997
phicBuffer	-8998
▁GetMagick	-8999
▁GetPixelBlue	-9000
sRGBColorspace	-9001
NoImagesDefined	-9002
+8	-9003
hb	-9004
MAJ	-9005
bio	-9006
gus	-9007
▁fz	-9008
▁ly	-9009
▁qt	-9010
PARE	-9011
SYST	-9012
hind	-9013
▁127	-9014
▁Com	-9015
▁ZIP	-9016
▁cmp	-9017
▁imm	-9018
▁wor	-9019
Audio	-9020
calar	-9021
oding	-9022
▁GURL	-9023
▁able	-9024
▁fuse	-9025
▁rlen	-9026
Export	-9027
Random	-9028
rotate	-9029
▁Cache	-9030
preview	-9031
▁native	-9032
▁perror	-9033
dispatch	-9034
refcount	-9035
▁Windows	-9036
FilledLen	-9037
runlength	-9038
▁FILENAME	-9039
▁ignoring	-9040
postscript	-9041
2[	-9042
JO	-9043
+2]	-9044
10:	-9045
118	-9046
Cre	-9047
NOF	-9048
Neg	-9049
QUO	-9050
aac	-9051
ars	-9052
vir	-9053
▁BP	-9054
▁SG	-9055
▁wp	-9056
0002	-9057
ABIL	-9058
DICT	-9059
Fold	-9060
IHDR	-9061
POOL	-9062
RSPC	-9063
agra	-9064
ores	-9065
rchr	-9066
▁DVB	-9067
▁Mod	-9068
▁Rot	-9069
▁fre	-9070
CHARS	-9071
VIRUS	-9072
alled	-9073
dopts	-9074
fread	-9075
modes	-9076
probe	-9077
refer	-9078
▁Expr	-9079
▁Need	-9080
▁ZSTR	-9081
▁zzip	-9082
CLRSPC	-9083
argest	-9084
ceiver	-9085
ighbor	-9086
leared	-9087
sqlite	-9088
▁Block	-9089
▁imapd	-9090
▁typed	-9091
BUFSIZE	-9092
restart	-9093
▁amount	-9094
▁getint	-9095
80000000	-9096
Password	-9097
REQUIRED	-9098
ReadFile	-9099
kInvalid	-9100
▁virtual	-9101
▁quantize	-9102
▁regmatch	-9103
MINISBLACK	-9104
superindex	-9105
Information	-9106
▁WavpackGet	-9107
▁stringprep	-9108
▁AppendImage	-9109
GRAYColorspace	-9110
BC	-9111
VT	-9112
["	-9113
171	-9114
Acc	-9115
Cnt	-9116
OPS	-9117
cdc	-9118
odf	-9119
Exit	-9120
PLTE	-9121
[10]	-9122
syms	-9123
tccp	-9124
▁CSR	-9125
DOMAIN	-9126
Parent	-9127
compile	-9128
dirname	-9129
▁invert	-9130
▁secret	-9131
▁though	-9132
▁decrypt	-9133
EXTENSION	-9134
precision	-9135
▁challenge	-9136
6->	-9137
UGH	-9138
prn	-9139
two	-9140
▁ie	-9141
▁nt	-9142
bias	-9143
euid	-9144
ulus	-9145
▁mlx	-9146
▁nfp	-9147
,">>\	-9148
EList	-9149
PANGO	-9150
flash	-9151
going	-9152
iases	-9153
ibase	-9154
▁LONG	-9155
▁SDHC	-9156
▁cout	-9157
▁edit	-9158
dsntmp	-9159
optind	-9160
▁LEXER	-9161
▁occur	-9162
clusive	-9163
▁STREAM	-9164
▁except	-9165
▁inline	-9166
▁member	-9167
andscape	-9168
pubnames	-9169
▁console	-9170
▁generic	-9171
▁duration	-9172
MSCWarning	-9173
UNEXPECTED	-9174
dependency	-9175
▁CONNECTION	-9176
▁TIFFGetField	-9177
ReadBlobMSBLong	-9178
NR	-9179
Np	-9180
=='	-9181
IBU	-9182
MSR	-9183
rtr	-9184
▁36	-9185
▁Be	-9186
▁PJ	-9187
▁ic	-9188
cons	-9189
wifi	-9190
▁'>'	-9191
▁Elf	-9192
▁nfs	-9193
▁nlh	-9194
UNDEF	-9195
forms	-9196
futex	-9197
guint	-9198
▁Fail	-9199
▁date	-9200
Couldn	-9201
daemon	-9202
▁Clear	-9203
▁buflen	-9204
▁calcul	-9205
▁plugin	-9206
matching	-9207
▁inflate	-9208
ColorSpace	-9209
▁handshake	-9210
+6	-9211
NB	-9212
Ns	-9213
1",	-9214
500	-9215
DNS	-9216
ELE	-9217
PED	-9218
TXt	-9219
fol	-9220
gsi	-9221
ino	-9222
sml	-9223
tmx	-9224
▁ii	-9225
PART	-9226
Phar	-9227
nChn	-9228
poof	-9229
subr	-9230
ully	-9231
▁512	-9232
▁pur	-9233
▁typ	-9234
TRUNC	-9235
paren	-9236
ptran	-9237
▁ISDN	-9238
NOTIFY	-9239
native	-9240
tunnel	-9241
upload	-9242
▁EXACT	-9243
▁pItem	-9244
ibility	-9245
ifindex	-9246
Contents	-9247
▁follows	-9248
▁lengths	-9249
▁AIRPDCAP	-9250
▁Resource	-9251
▁selected	-9252
encryption	-9253
▁represent	-9254
▁properties	-9255
declarations	-9256
CloneImageInfo	-9257
▁ZipCompression	-9258
>%	-9259
NP	-9260
+=8	-9261
ORR	-9262
TOP	-9263
Metr	-9264
Wand	-9265
pkcs	-9266
▁div	-9267
mtime	-9268
which	-9269
▁dlen	-9270
▁fake	-9271
▁perm	-9272
wifiex	-9273
▁proxy	-9274
encrypt	-9275
globals	-9276
▁needle	-9277
▁timing	-9278
missions	-9279
namespace	-9280
▁sections	-9281
>&	-9282
GW	-9283
ik	-9284
NIL	-9285
PGM	-9286
bat	-9287
mxf	-9288
sta	-9289
EXIF	-9290
SYMS	-9291
lope	-9292
spin	-9293
▁BIG	-9294
▁PAR	-9295
▁ctb	-9296
▁pam	-9297
IFLIB	-9298
LOADI	-9299
ashfs	-9300
hared	-9301
sidue	-9302
uaddr	-9303
▁WEBP	-9304
▁atts	-9305
▁clip	-9306
▁icmp	-9307
Bounds	-9308
URCING	-9309
assign	-9310
custom	-9311
margin	-9312
onical	-9313
redmap	-9314
strong	-9315
PAYLOAD	-9316
SUBTYPE	-9317
account	-9318
bluemap	-9319
console	-9320
framing	-9321
propose	-9322
undfold	-9323
▁passwd	-9324
DrawInfo	-9325
Evaluate	-9326
IntArray	-9327
greenmap	-9328
▁further	-9329
nFilledLen	-9330
lationTable	-9331
▁correspond	-9332
▁dictionary	-9333
DL	-9334
PDU	-9335
TIF	-9336
sdp	-9337
soc	-9338
ttp	-9339
▁GL	-9340
▁hb	-9341
▁tw	-9342
▁vB	-9343
▁wc	-9344
2015	-9345
gets	-9346
ndev	-9347
rott	-9348
▁car	-9349
After	-9350
HELLO	-9351
OURCE	-9352
alert	-9353
colon	-9354
havio	-9355
quiet	-9356
Helper	-9357
NOTICE	-9358
extend	-9359
nspace	-9360
pacing	-9361
▁calls	-9362
▁mysql	-9363
haviour	-9364
▁increa	-9365
▁modify	-9366
constant	-9367
redirect	-9368
stricted	-9369
▁Setting	-9370
▁privile	-9371
▁versions	-9372
collection	-9373
▁according	-9374
":	-9375
06	-9376
5.	-9377
62	-9378
wa	-9379
010	-9380
650	-9381
Dec	-9382
FAX	-9383
FLG	-9384
PSD	-9385
TOK	-9386
iph	-9387
▁IF	-9388
▁WR	-9389
alpn	-9390
▁CCP	-9391
▁ICB	-9392
▁MSB	-9393
▁pol	-9394
Async	-9395
agram	-9396
lossy	-9397
rsize	-9398
slave	-9399
▁Loop	-9400
▁cptr	-9401
▁deal	-9402
▁ldap	-9403
▁made	-9404
Bucket	-9405
ToList	-9406
imeter	-9407
onitor	-9408
classes	-9409
execute	-9410
▁HERMES	-9411
HOSTNAME	-9412
lossless	-9413
▁Version	-9414
Alignment	-9415
Corrupted	-9416
angleInfo	-9417
▁Geometry	-9418
▁SOURCING	-9419
▁compound	-9420
▁finished	-9421
▁preamble	-9422
CloneImage	-9423
▁forbidden	-9424
▁filesystem	-9425
▁PseudoColor	-9426
lb	-9427
cut	-9428
ssn	-9429
▁rl	-9430
Body	-9431
Note	-9432
OLAR	-9433
Onig	-9434
SASL	-9435
heap	-9436
xdec	-9437
▁'1'	-9438
▁MSR	-9439
▁spi	-9440
ACCES	-9441
APPLY	-9442
Clear	-9443
props	-9444
▁Perl	-9445
▁TGSI	-9446
▁VLOG	-9447
▁fold	-9448
GNUTLS	-9449
srcadr	-9450
▁intel	-9451
Capture	-9452
Closure	-9453
isdigit	-9454
visible	-9455
▁keylen	-9456
▁packed	-9457
inHeader	-9458
otential	-9459
▁Message	-9460
▁regular	-9461
▁results	-9462
▁provided	-9463
CommandLine	-9464
+7	-9465
BT	-9466
DA	-9467
]%	-9468
110	-9469
12,	-9470
GPS	-9471
ISS	-9472
dts	-9473
▁CT	-9474
▁pd	-9475
Fill	-9476
PEEK	-9477
PRIu	-9478
devs	-9479
ecdh	-9480
ices	-9481
ival	-9482
ptek	-9483
▁'5'	-9484
▁mtu	-9485
EXIST	-9486
LABEL	-9487
UCHAR	-9488
erase	-9489
erved	-9490
iform	-9491
nregs	-9492
tered	-9493
▁LIBC	-9494
▁Name	-9495
▁cent	-9496
▁ectx	-9497
▁gcry	-9498
syslog	-9499
▁overr	-9500
▁times	-9501
Epsilon	-9502
Quality	-9503
graymap	-9504
varname	-9505
BytesPer	-9506
resolved	-9507
▁AUTOKEY	-9508
▁disable	-9509
▁feature	-9510
▁deferred	-9511
▁pubnames	-9512
Dictionary	-9513
▁processed	-9514
chnSettings	-9515
▁navigation	-9516
▁specification	-9517
*4	-9518
4.	-9519
kz	-9520
444	-9521
chg	-9522
gss	-9523
pmd	-9524
ven	-9525
▁ri	-9526
1024	-9527
CHES	-9528
MARC	-9529
lzma	-9530
▁'<'	-9531
Eigen	-9532
IBUTE	-9533
PLACE	-9534
chans	-9535
sibly	-9536
▁ACPI	-9537
▁Info	-9538
▁asoc	-9539
▁best	-9540
▁wddx	-9541
cesses	-9542
strstr	-9543
▁Allow	-9544
▁fsize	-9545
INITIAL	-9546
corrupt	-9547
virtual	-9548
▁VIRTIO	-9549
▁future	-9550
▁likely	-9551
▁router	-9552
▁Reading	-9553
▁delimiter	-9554
OI	-9555
_%	-9556
hq	-9557
<<\	-9558
ARK	-9559
MUL	-9560
ana	-9561
grp	-9562
may	-9563
udf	-9564
▁PC	-9565
▁SW	-9566
▁ft	-9567
▁ta	-9568
▁uv	-9569
▁vt	-9570
Args	-9571
DEFL	-9572
ldap	-9573
ness	-9574
▁ACL	-9575
▁gfx	-9576
▁pdf	-9577
,"<<\	-9578
6502_	-9579
MAJOR	-9580
Proxy	-9581
SMBUS	-9582
fword	-9583
masks	-9584
spell	-9585
while	-9586
▁SCTP	-9587
▁libr	-9588
Pixmap	-9589
errstr	-9590
queued	-9591
srbcmd	-9592
▁ALOGV	-9593
▁evalu	-9594
illegal	-9595
ossible	-9596
▁_6502_	-9597
▁policy	-9598
▁strcat	-9599
JSObject	-9600
autofree	-9601
tagstack	-9602
▁addrbuf	-9603
▁closing	-9604
▁priority	-9605
▁restrict	-9606
▁scanlines	-9607
Certificate	-9608
HermesValue	-9609
GetCacheView	-9610
transparency	-9611
RenderingIntent	-9612
▁LZWCompression	-9613
_1:	-9614
cos	-9615
srv	-9616
ucs	-9617
Sock	-9618
▁Cur	-9619
▁uri	-9620
INODE	-9621
sname	-9622
stype	-9623
▁csum	-9624
Active	-9625
router	-9626
▁ECerr	-9627
Connect	-9628
dynamic	-9629
▁Offset	-9630
▁memchr	-9631
Constant	-9632
▁minimum	-9633
▁mwifiex	-9634
Arguments	-9635
▁Calculate	-9636
▁condition	-9637
▁functions	-9638
▁ThrowBinary	-9639
Av	-9640
NM	-9641
kc	-9642
IMG	-9643
PHP	-9644
Rot	-9645
Sta	-9646
aes	-9647
evt	-9648
pfm	-9649
▁WS	-9650
▁bl	-9651
▁nh	-9652
▁os	-9653
BUSY	-9654
FORM	-9655
PROG	-9656
ccfg	-9657
emph	-9658
mgmt	-9659
pptr	-9660
writ	-9661
yyss	-9662
▁All	-9663
▁UNI	-9664
▁nal	-9665
▁pie	-9666
▁upx	-9667
LIVER	-9668
MINUS	-9669
VPNUN	-9670
WRONG	-9671
iovec	-9672
▁FLOW	-9673
▁Gray	-9674
▁HEAD	-9675
▁appe	-9676
nghttp	-9677
pragma	-9678
scalar	-9679
vmcast	-9680
▁PRINT	-9681
▁cells	-9682
▁fputc	-9683
▁futex	-9684
▁kdict	-9685
▁pango	-9686
▁plane	-9687
▁predi	-9688
Payload	-9689
backend	-9690
dissect	-9691
nodeset	-9692
scaling	-9693
▁attach	-9694
▁phpurl	-9695
▁rfbLog	-9696
▁vfpdef	-9697
SEQUENCE	-9698
numcmpts	-9699
▁Huffman	-9700
▁Missing	-9701
▁Writing	-9702
▁looking	-9703
▁xmlFree	-9704
Remaining	-9705
▁username	-9706
Centimeter	-9707
▁interlace	-9708
▁nsections	-9709
▁precision	-9710
▁previously	-9711
Cl	-9712
DU	-9713
BLK	-9714
KRB	-9715
TIM	-9716
UPX	-9717
eos	-9718
rar	-9719
vpn	-9720
▁Sh	-9721
▁ja	-9722
ENOT	-9723
FIER	-9724
aves	-9725
curl	-9726
hoff	-9727
setg	-9728
GENER	-9729
SEVER	-9730
ifact	-9731
▁COAP	-9732
▁shdr	-9733
▁step	-9734
Compat	-9735
FINISH	-9736
▁LOCAL	-9737
▁Track	-9738
▁curve	-9739
rotated	-9740
▁compno	-9741
SEVERITY	-9742
blocking	-9743
ATTRIBUTE	-9744
Reference	-9745
▁terminated	-9746
&=	-9747
87	-9748
HO	-9749
lm	-9750
64.	-9751
Fix	-9752
Irp	-9753
Low	-9754
Off	-9755
TAB	-9756
UTE	-9757
kim	-9758
msc	-9759
ude	-9760
ung	-9761
/100	-9762
Luma	-9763
comb	-9764
uous	-9765
▁'2'	-9766
▁NUM	-9767
▁UAC	-9768
▁drm	-9769
apsed	-9770
audit	-9771
pktin	-9772
ptype	-9773
▁0.0,	-9774
▁Mode	-9775
Cookie	-9776
Groups	-9777
VIsual	-9778
▁Debug	-9779
▁TYPES	-9780
▁dicom	-9781
▁masks	-9782
INVERSE	-9783
NodePtr	-9784
ToChunk	-9785
eedback	-9786
rawdata	-9787
sectors	-9788
▁VIsual	-9789
▁fflush	-9790
Register	-9791
Standard	-9792
▁Command	-9793
ColorType	-9794
Composite	-9795
intercept	-9796
----+----+	-9797
ObjectSize	-9798
horizontal	-9799
opherState	-9800
preserving	-9801
▁UNDEFINED	-9802
SignedShort	-9803
payloadleft	-9804
▁appendData	-9805
97	-9806
RS	-9807
kv	-9808
[20	-9809
dpy	-9810
ook	-9811
▁An	-9812
▁ge	-9813
Dash	-9814
LYPH	-9815
atio	-9816
sdma	-9817
thex	-9818
▁CPU	-9819
▁VPX	-9820
Major	-9821
coped	-9822
reloc	-9823
▁QPDF	-9824
▁pIdx	-9825
volume	-9826
▁newtp	-9827
widthex	-9828
▁Server	-9829
▁canvas	-9830
▁encode	-9831
▁export	-9832
▁inputs	-9833
CONTINUE	-9834
artifact	-9835
comments	-9836
▁isolate	-9837
▁symbols	-9838
▁followed	-9839
VS	-9840
ei	-9841
rh	-9842
177	-9843
EAX	-9844
HRM	-9845
LER	-9846
MON	-9847
SKB	-9848
▁OB	-9849
▁fc	-9850
▁pt	-9851
Fast	-9852
LATE	-9853
PEAT	-9854
ZSTR	-9855
chrm	-9856
ents	-9857
ypot	-9858
▁Let	-9859
▁RET	-9860
▁UDF	-9861
▁wmf	-9862
DEFER	-9863
▁ends	-9864
▁mont	-9865
▁mult	-9866
▁tags	-9867
Custom	-9868
ENCODE	-9869
IObuff	-9870
MASTER	-9871
bcount	-9872
buflen	-9873
getenv	-9874
gevent	-9875
keylen	-9876
▁yymsg	-9877
ABILITY	-9878
GetType	-9879
TOOMANY	-9880
contone	-9881
memmove	-9882
▁altern	-9883
▁bounce	-9884
▁master	-9885
▁opened	-9886
▁scalar	-9887
▁Disable	-9888
▁behavior	-9889
initialize	-9890
IA	-9891
ens	-9892
▁<%	-9893
▁ME	-9894
▁Sv	-9895
▁js	-9896
ALEN	-9897
[11]	-9898
maps	-9899
▁"."	-9900
▁day	-9901
▁ftp	-9902
▁irq	-9903
THROW	-9904
caret	-9905
leave	-9906
vider	-9907
▁Post	-9908
▁chip	-9909
▁vdev	-9910
▁4096,	-9911
▁mLast	-9912
▁phase	-9913
▁rcode	-9914
logical	-9915
product	-9916
▁Vector	-9917
▁avpriv	-9918
ClientID	-9919
Lossless	-9920
▁capture	-9921
extensions	-9922
▁algorithm	-9923
RecordLength	-9924
▁corresponding	-9925
%"	-9926
fq	-9927
17,	-9928
420	-9929
DYN	-9930
IDs	-9931
ern	-9932
gfn	-9933
hot	-9934
jom	-9935
rof	-9936
tot	-9937
▁22	-9938
▁27	-9939
▁mg	-9940
▁vo	-9941
PIPE	-9942
SNMP	-9943
[13]	-9944
[1]=	-9945
disc	-9946
flex	-9947
mant	-9948
puma	-9949
stun	-9950
▁'\'	-9951
▁Pop	-9952
▁TOK	-9953
▁fit	-9954
▁phy	-9955
65535	-9956
ained	-9957
ently	-9958
hints	-9959
pRExC	-9960
tuple	-9961
▁dccp	-9962
▁ehdr	-9963
acters	-9964
aspect	-9965
inodes	-9966
locset	-9967
▁iconv	-9968
▁inbuf	-9969
▁plist	-9970
Buffers	-9971
COMMENT	-9972
Dispose	-9973
MATCHES	-9974
NodeSet	-9975
filters	-9976
nLength	-9977
▁ACTION	-9978
▁BIGNUM	-9979
▁Normal	-9980
▁forced	-9981
▁scroll	-9982
▁shadow	-9983
▁volume	-9984
▁Profile	-9985
▁eprintf	-9986
▁weights	-9987
pointsize	-9988
▁logevent	-9989
GetDlgItem	-9990
▁LIBCERROR	-9991
▁statistic	-9992
FindAttribute	-9993
SampleToChunk	-9994
▁TIFFFileName	-9995
"_	-9996
CV	-9997
Jo	-9998
wv	-9999
Tok	-10000
▁1-	-10001
VERT	-10002
dash	-10003
emsg	-10004
expn	-10005
xmit	-10006
▁nos	-10007
▁web	-10008
ATIVE	-10009
ENTER	-10010
Pages	-10011
Rules	-10012
blems	-10013
derer	-10014
▁Look	-10015
ORRUPT	-10016
Pseudo	-10017
tained	-10018
▁ARRAY	-10019
entials	-10020
monitor	-10021
special	-10022
▁chroma	-10023
▁sector	-10024
Callback	-10025
Protocol	-10026
▁machine	-10027
widthexpn	-10028
▁boundary	-10029
▁platform	-10030
▁increment	-10031
▁authenticated	-10032
FB	-10033
Sn	-10034
ae	-10035
11/	-10036
2!=	-10037
EOR	-10038
GNU	-10039
PSK	-10040
chk	-10041
chs	-10042
pdy	-10043
pmt	-10044
xpm	-10045
▁##	-10046
▁UV	-10047
▁um	-10048
6<<8	-10049
ATCH	-10050
CHRO	-10051
PRIM	-10052
VOLU	-10053
cpus	-10054
ehci	-10055
mbox	-10056
▁"\"	-10057
▁'['	-10058
▁dcm	-10059
▁gpg	-10060
▁pin	-10061
▁thd	-10062
00000	-10063
Flush	-10064
Focal	-10065
SCOPE	-10066
SUPER	-10067
rypto	-10068
▁Exif	-10069
▁HWND	-10070
▁Swap	-10071
▁clen	-10072
▁lzma	-10073
Linked	-10074
Multip	-10075
attach	-10076
cibase	-10077
modify	-10078
padata	-10079
remain	-10080
resume	-10081
shadow	-10082
▁These	-10083
▁miINT	-10084
▁mxINT	-10085
▁pglob	-10086
AggInfo	-10087
DimFlag	-10088
mediate	-10089
▁BPLIST	-10090
▁attack	-10091
▁miUINT	-10092
▁mxUINT	-10093
▁rather	-10094
perpixel	-10095
subframe	-10096
▁printer	-10097
▁shouldn	-10098
DISSECTOR	-10099
PixelsPer	-10100
BlockAlign	-10101
Expression	-10102
Properties	-10103
netdissect	-10104
▁overwrite	-10105
errorMessage	-10106
GetImageProfile	-10107
AbsoluteGeometry	-10108
wr	-10109
ABS	-10110
LED	-10111
▁65	-10112
▁FD	-10113
▁IB	-10114
DROP	-10115
DUMP	-10116
Dump	-10117
WARE	-10118
ldns	-10119
▁'?'	-10120
▁OFF	-10121
▁PIX	-10122
▁alt	-10123
inger	-10124
sktop	-10125
stand	-10126
▁Cont	-10127
▁IMAP	-10128
▁salt	-10129
PROPER	-10130
SYSTEM	-10131
fetime	-10132
rlayer	-10133
stract	-10134
▁Fetch	-10135
▁Flags	-10136
▁Found	-10137
▁iscsi	-10138
agement	-10139
▁ENOMEM	-10140
▁adding	-10141
▁anyway	-10142
▁reduce	-10143
CRYPTION	-10144
Validate	-10145
datetime	-10146
original	-10147
▁directly	-10148
▁schedule	-10149
▁converted	-10150
gw	-10151
pj	-10152
xB	-10153
xs	-10154
yi	-10155
BDF	-10156
DIM	-10157
DOT	-10158
KDC	-10159
cow	-10160
cra	-10161
gle	-10162
jsv	-10163
oap	-10164
ofs	-10165
vsz	-10166
▁'4	-10167
▁3.	-10168
▁VR	-10169
▁ke	-10170
▁ng	-10171
<<=1	-10172
\0\0	-10173
ldub	-10174
leno	-10175
ount	-10176
▁NCH	-10177
▁URI	-10178
▁Uns	-10179
Setup	-10180
Ticks	-10181
rdata	-10182
▁CODE	-10183
▁ndpi	-10184
▁pdev	-10185
▁pkey	-10186
EAGAIN	-10187
Report	-10188
SCRIPT	-10189
Scalar	-10190
iffies	-10191
traits	-10192
velope	-10193
xstart	-10194
▁ORDER	-10195
▁Query	-10196
▁cinfo	-10197
▁pairs	-10198
livered	-10199
methods	-10200
▁outlen	-10201
▁pieces	-10202
▁unable	-10203
platform	-10204
specific	-10205
▁deleted	-10206
ruleChars	-10207
▁implicit	-10208
▁sampling	-10209
Identifier	-10210
MINISWHITE	-10211
▁duplicate	-10212
▁colorspace	-10213
▁RectangleInfo	-10214
▁TfLiteIntArray	-10215
"<	-10216
[8	-10217
fra	-10218
who	-10219
▁Cr	-10220
Conv	-10221
Heap	-10222
NEST	-10223
ORIG	-10224
REGI	-10225
ffic	-10226
intr	-10227
sasl	-10228
▁ADD	-10229
▁Gst	-10230
▁ecc	-10231
AVAIL	-10232
▁Just	-10233
▁SMTP	-10234
▁Spec	-10235
AUTHOR	-10236
Layers	-10237
cached	-10238
▁colon	-10239
▁sfree	-10240
▁tried	-10241
OLARSSL	-10242
▁Direct	-10243
▁errout	-10244
▁little	-10245
▁syscall	-10246
▁waiting	-10247
remapping	-10248
▁features	-10249
StyleColor	-10250
▁alignment	-10251
▁recursive	-10252
▁definition	-10253
▁encryption	-10254
▁compileError	-10255
"'	-10256
AVC	-10257
DER	-10258
FIO	-10259
SEP	-10260
dds	-10261
lev	-10262
mph	-10263
oss	-10264
▁BR	-10265
264_	-10266
Fail	-10267
GetI	-10268
IEEE	-10269
Java	-10270
NEED	-10271
PLUS	-10272
UNIX	-10273
Used	-10274
ales	-10275
aris	-10276
boot	-10277
cmds	-10278
dflt	-10279
gate	-10280
home	-10281
ropy	-10282
snap	-10283
tcph	-10284
unix	-10285
wake	-10286
▁EOL	-10287
▁Exp	-10288
▁New	-10289
▁PCD	-10290
▁omp	-10291
▁vep	-10292
%+.20	-10293
Artif	-10294
paddr	-10295
sized	-10296
▁Scan	-10297
▁eval	-10298
▁geta	-10299
▁help	-10300
▁hint	-10301
▁home	-10302
▁kill	-10303
EXPORT	-10304
Lookup	-10305
choice	-10306
hanced	-10307
▁Dwarf	-10308
▁Store	-10309
▁lexer	-10310
▁minor	-10311
FETCHED	-10312
country	-10313
dispose	-10314
pfminfo	-10315
▁Packet	-10316
▁Result	-10317
Artifact	-10318
RESPONSE	-10319
alHeader	-10320
profiles	-10321
uristics	-10322
▁ONIGENC	-10323
▁central	-10324
▁matched	-10325
▁picture	-10326
firstline	-10327
▁identity	-10328
▁incoming	-10329
significant	-10330
▁executable	-10331
▁getastring	-10332
AcquireString	-10333
RLECompression	-10334
!!!	-10335
Bro	-10336
Dyn	-10337
IGH	-10338
\",	-10339
]=0	-10340
ess	-10341
loy	-10342
udp	-10343
vlc	-10344
▁ER	-10345
OKIE	-10346
SCHE	-10347
atoi	-10348
lipt	-10349
osit	-10350
trim	-10351
zier	-10352
▁Goo	-10353
Build	-10354
ENDED	-10355
GLYPH	-10356
MINOR	-10357
Title	-10358
[1024	-10359
lassi	-10360
▁wake	-10361
intern	-10362
public	-10363
rottle	-10364
Missing	-10365
▁ICBTAG	-10366
▁bottom	-10367
▁events	-10368
▁import	-10369
▁rewind	-10370
RESOURCE	-10371
asprintf	-10372
▁DEFAULT	-10373
▁boolean	-10374
▁removed	-10375
▁potential	-10376
▁strncasecmp	-10377
92	-10378
Ne	-10379
eh	-10380
00:	-10381
EXR	-10382
cct	-10383
ked	-10384
llu	-10385
sgi	-10386
▁23	-10387
▁HA	-10388
▁wb	-10389
FOLD	-10390
][3]	-10391
grad	-10392
ilar	-10393
java	-10394
msub	-10395
ofor	-10396
▁cip	-10397
▁sit	-10398
Abort	-10399
DROID	-10400
Sound	-10401
Stamp	-10402
USAGE	-10403
chdir	-10404
layno	-10405
nNext	-10406
posal	-10407
stems	-10408
tilec	-10409
ysize	-10410
▁AUTH	-10411
▁CTRL	-10412
▁fmap	-10413
▁glob	-10414
▁yyss	-10415
ADDING	-10416
ANCHOR	-10417
Driver	-10418
PARSER	-10419
Strict	-10420
USHORT	-10421
addSub	-10422
alesce	-10423
inbase	-10424
shader	-10425
slices	-10426
▁Stack	-10427
▁comma	-10428
▁dflag	-10429
▁gTrue	-10430
▁iovec	-10431
▁realm	-10432
DataPtr	-10433
IsValid	-10434
OrderBy	-10435
READING	-10436
constra	-10437
huffman	-10438
ritical	-10439
▁LIBXML	-10440
▁SAMPLE	-10441
▁branch	-10442
▁clause	-10443
▁custom	-10444
CCITTFAX	-10445
Sequence	-10446
prefixes	-10447
▁CLIWand	-10448
▁Replace	-10449
▁Unicode	-10450
▁filesize	-10451
AddWrapper	-10452
DoReadFile	-10453
Postscript	-10454
capability	-10455
▁MagickMin	-10456
▁lookahead	-10457
▁partition	-10458
▁resources	-10459
addSubGroup	-10460
parseTensor	-10461
▁horizontal	-10462
▁incomplete	-10463
▁ReadBlobMSBLong	-10464
63	-10465
HS	-10466
▁TT	-10467
▁TX	-10468
TICK	-10469
Unit	-10470
ayer	-10471
ogle	-10472
sbuf	-10473
▁API	-10474
▁Any	-10475
▁GSS	-10476
▁IFF	-10477
▁uni	-10478
++='\	-10479
Other	-10480
POSIX	-10481
Sizes	-10482
▁ARES	-10483
button	-10484
ifiers	-10485
msglen	-10486
needle	-10487
queues	-10488
unctor	-10489
ushort	-10490
▁fiber	-10491
▁issue	-10492
compute	-10493
▁simply	-10494
PerPixel	-10495
delegate	-10496
▁trigger	-10497
irqrestore	-10498
▁ThrowPICT	-10499
Bi	-10500
SQ	-10501
TD	-10502
",4	-10503
186	-10504
755	-10505
AMA	-10506
Are	-10507
CPY	-10508
GSS	-10509
Jmp	-10510
NEG	-10511
PES	-10512
SPA	-10513
USI	-10514
ccb	-10515
eob	-10516
www	-10517
▁au	-10518
▁dh	-10519
8000	-10520
ELAB	-10521
MISS	-10522
hand	-10523
hore	-10524
ieee	-10525
rlvl	-10526
stub	-10527
wild	-10528
wmem	-10529
▁AAC	-10530
▁And	-10531
▁KEY	-10532
▁VAL	-10533
▁sid	-10534
BOUND	-10535
CODER	-10536
Prior	-10537
SIBLE	-10538
atile	-10539
fseek	-10540
ibble	-10541
inity	-10542
nchar	-10543
▁JSON	-10544
▁Time	-10545
▁VIFF	-10546
▁[','	-10547
▁busy	-10548
IMULTI	-10549
Symbol	-10550
VOLUME	-10551
bundle	-10552
pixbuf	-10553
tmpbuf	-10554
▁CHILD	-10555
▁MAGIC	-10556
▁matte	-10557
GetBits	-10558
IsFloat	-10559
PutById	-10560
SPECIAL	-10561
maphore	-10562
refresh	-10563
weights	-10564
▁DEBUGF	-10565
▁SizeOf	-10566
▁nested	-10567
▁noback	-10568
▁typval	-10569
motorola	-10570
twordlen	-10571
▁Display	-10572
IMULTICAST	-10573
multiplier	-10574
nodesetval	-10575
▁Duplicate	-10576
▁MSBEndian	-10577
▁embedding	-10578
▁whitespace	-10579
StorageClass	-10580
▁IndexPacket	-10581
IsNotSupported	-10582
*8	-10583
Div	-10584
ILS	-10585
Pad	-10586
UDP	-10587
dsa	-10588
irp	-10589
lsr	-10590
ned	-10591
FAST	-10592
posn	-10593
qemu	-10594
isize	-10595
▁Move	-10596
▁That	-10597
▁hmac	-10598
ENOENT	-10599
liptic	-10600
▁digit	-10601
▁fatal	-10602
▁major	-10603
CORRUPT	-10604
CURRENT	-10605
autoptr	-10606
▁daemon	-10607
▁define	-10608
Download	-10609
priority	-10610
strategy	-10611
▁respond	-10612
operation	-10613
specified	-10614
▁remember	-10615
▁GooString	-10616
------------	-10617
*0	-10618
<=	-10619
AW	-10620
QM	-10621
11:	-10622
ToM	-10623
htx	-10624
orz	-10625
pdx	-10626
stp	-10627
tfm	-10628
▁VT	-10629
▁fn	-10630
▁ni	-10631
Area	-10632
GRAP	-10633
LESS	-10634
TECT	-10635
argp	-10636
dcmp	-10637
moof	-10638
sudo	-10639
ubic	-10640
▁CNV	-10641
▁PCI	-10642
▁irc	-10643
▁rad	-10644
LEGAL	-10645
REPLY	-10646
SCALE	-10647
catch	-10648
clamp	-10649
dname	-10650
inlen	-10651
nExpr	-10652
▁dont	-10653
▁ehci	-10654
bridge	-10655
quival	-10656
stored	-10657
▁Could	-10658
▁SSize	-10659
▁async	-10660
▁blank	-10661
▁title	-10662
Offsets	-10663
privile	-10664
▁coding	-10665
▁nghttp	-10666
Indirect	-10667
fileName	-10668
nCurrent	-10669
▁DPRINTF	-10670
▁Imaging	-10671
▁Unknown	-10672
▁execute	-10673
▁unicode	-10674
CharPixel	-10675
Grayscale	-10676
LongPixel	-10677
Rectangle	-10678
firstlnum	-10679
ypothesis	-10680
▁Internal	-10681
UnicodeSet	-10682
conversion	-10683
▁expecting	-10684
▁configured	-10685
▁SAMPLEFORMAT	-10686
numresolutions	-10687
><	-10688
Ai	-10689
wc	-10690
SPS	-10691
▁46	-10692
▁6:	-10693
▁AS	-10694
▁fa	-10695
▁fo	-10696
▁xf	-10697
Enum	-10698
[14]	-10699
cmyk	-10700
▁'%'	-10701
▁der	-10702
▁sup	-10703
▁syn	-10704
EXTRA	-10705
Gamma	-10706
faces	-10707
grams	-10708
meral	-10709
▁FREE	-10710
▁Page	-10711
rename	-10712
▁looks	-10713
▁rules	-10714
▁vrend	-10715
PROFILE	-10716
SERVICE	-10717
▁destroy	-10718
▁dprintk	-10719
▁errcode	-10720
▁servers	-10721
▁strrchr	-10722
resources	-10723
▁interval	-10724
▁properly	-10725
▁capabilities	-10726
07	-10727
fy	-10728
14_	-10729
AES	-10730
BPC	-10731
SAN	-10732
Wrm	-10733
alc	-10734
bnd	-10735
hal	-10736
jpg	-10737
svm	-10738
tol	-10739
wps	-10740
▁PI	-10741
▁PO	-10742
▁bw	-10743
▁yi	-10744
']=1	-10745
Crop	-10746
Dots	-10747
SAVE	-10748
endp	-10749
ille	-10750
ised	-10751
lbuf	-10752
scsi	-10753
semi	-10754
▁"/"	-10755
▁24,	-10756
▁DCM	-10757
▁LBR	-10758
▁Msg	-10759
▁SUP	-10760
▁gss	-10761
▁kdb	-10762
apply	-10763
irror	-10764
merge	-10765
nComp	-10766
ntohs	-10767
zName	-10768
▁MIFF	-10769
▁OHCI	-10770
▁Prag	-10771
▁card	-10772
▁exch	-10773
▁nChn	-10774
▁prom	-10775
▁tcpd	-10776
▁unit	-10777
CIELAB	-10778
Entity	-10779
MODULO	-10780
achine	-10781
ilevel	-10782
mChunk	-10783
strbuf	-10784
strcat	-10785
▁blend	-10786
▁bogus	-10787
▁resno	-10788
▁tword	-10789
DEFLATE	-10790
PADDING	-10791
focused	-10792
rescale	-10793
stratum	-10794
trailer	-10795
▁Rotate	-10796
▁strtok	-10797
Interval	-10798
VARIABLE	-10799
language	-10800
leaflist	-10801
▁1000000	-10802
▁Proceed	-10803
▁density	-10804
▁library	-10805
▁yystate	-10806
ReadImage	-10807
▁comments	-10808
▁newscore	-10809
ifications	-10810
rowCommand	-10811
▁correctly	-10812
▁tmpHandle	-10813
subsampling	-10814
▁deliveries	-10815
capabilities	-10816
IsFloatDefined	-10817
▁MagickSizeType	-10818
1\	-10819
93	-10820
RR	-10821
gz	-10822
NOP	-10823
[-3	-10824
foo	-10825
pbs	-10826
▁!!	-10827
▁72	-10828
▁cf	-10829
sdev	-10830
▁cut	-10831
▁fib	-10832
▁icc	-10833
▁vir	-10834
terns	-10835
▁ctrl	-10836
▁mmap	-10837
▁olsr	-10838
▁scsi	-10839
border	-10840
licity	-10841
▁users	-10842
CHECKED	-10843
Metrics	-10844
desktop	-10845
hemeral	-10846
▁sanity	-10847
▁skeyid	-10848
IsVector	-10849
Selector	-10850
fullpath	-10851
generate	-10852
patterns	-10853
▁mBuffer	-10854
▁smaller	-10855
restricted	-10856
▁recursion	-10857
▁extensions	-10858
BitsPerSample	-10859
8-	-10860
Bx	-10861
WI	-10862
_[	-10863
15,	-10864
XWD	-10865
arb	-10866
avg	-10867
eep	-10868
esh	-10869
▁Di	-10870
▁ds	-10871
FORE	-10872
SAMP	-10873
curi	-10874
filp	-10875
nImg	-10876
nbuf	-10877
nest	-10878
skew	-10879
stsc	-10880
subs	-10881
umin	-10882
▁ULL	-10883
▁nfa	-10884
QUASH	-10885
TIFIC	-10886
erral	-10887
icate	-10888
nemon	-10889
▁Draw	-10890
▁NDPI	-10891
▁Sign	-10892
▁hole	-10893
▁opts	-10894
DIVIDE	-10895
Factor	-10896
LIMITS	-10897
OPENMP	-10898
REPORT	-10899
adjoin	-10900
liance	-10901
ystart	-10902
▁fgetc	-10903
▁reuse	-10904
▁treat	-10905
ANDROID	-10906
ational	-10907
getName	-10908
problem	-10909
▁broken	-10910
ENCODING	-10911
MULTIPLY	-10912
floating	-10913
memslots	-10914
▁NGIFLIB	-10915
▁estrdup	-10916
▁filepos	-10917
▁happens	-10918
▁seconds	-10919
BigEndian	-10920
CodePoint	-10921
IENTATION	-10922
Compressed	-10923
unexpected	-10924
▁returning	-10925
▁translate	-10926
LittleEndian	-10927
▁QuantumInfo	-10928
▁GetPixelAlpha	-10929
BlendPixelTrait	-10930
////////////////	-10931
0"	-10932
4*	-10933
BA	-10934
[*	-10935
SES	-10936
arc	-10937
ini	-10938
ptc	-10939
▁'&	-10940
▁2*	-10941
Caps	-10942
Chro	-10943
EVNT	-10944
mart	-10945
omin	-10946
ones	-10947
rote	-10948
stab	-10949
voke	-10950
▁inf	-10951
▁nam	-10952
▁ste	-10953
sired	-10954
▁thus	-10955
Search	-10956
Secure	-10957
arbage	-10958
▁CURLE	-10959
▁Point	-10960
▁VHOST	-10961
▁dmarc	-10962
▁netif	-10963
CLOEXEC	-10964
Convert	-10965
irqsave	-10966
isEmpty	-10967
ominator	-10968
▁EXIFERR	-10969
▁indicate	-10970
Attributes	-10971
dimensions	-10972
kwonlyargs	-10973
▁undefined	-10974
▁Connection	-10975
GenericError	-10976
▁DirectColor	-10977
/"	-10978
2"	-10979
***	-10980
236	-10981
400	-10982
>>8	-10983
Ani	-10984
GRE	-10985
REV	-10986
TOR	-10987
dit	-10988
ipf	-10989
pte	-10990
shm	-10991
tan	-10992
vis	-10993
▁DP	-10994
▁Sk	-10995
▁VP	-10996
▁hd	-10997
256_	-10998
FFFF	-10999
IfLE	-11000
NSAP	-11001
acon	-11002
cntl	-11003
dbuf	-11004
lldp	-11005
mbda	-11006
mous	-11007
rctx	-11008
sact	-11009
▁%",	-11010
▁']'	-11011
▁Col	-11012
▁NID	-11013
▁PDF	-11014
▁ToL	-11015
▁ctl	-11016
▁eof	-11017
▁iDb	-11018
▁ssc	-11019
1867_	-11020
Basic	-11021
Focus	-11022
LEASE	-11023
THING	-11024
adget	-11025
mlink	-11026
quota	-11027
▁CALL	-11028
▁GIMP	-11029
▁PLAN	-11030
▁YANG	-11031
▁adev	-11032
▁catc	-11033
▁trim	-11034
/100.0	-11035
DETECT	-11036
Inputs	-11037
Malloc	-11038
agraph	-11039
ically	-11040
▁Alpha	-11041
▁Chunk	-11042
▁guest	-11043
▁merge	-11044
▁model	-11045
▁slang	-11046
%*[%,]%	-11047
ASAMPLE	-11048
Browser	-11049
ENCRYPT	-11050
correct	-11051
▁MaxVal	-11052
▁MinVal	-11053
▁Output	-11054
▁dirlen	-11055
▁perform	-11056
▁yytoken	-11057
Container	-11058
SEPARATED	-11059
▁IoBuffer	-11060
▁pStorage	-11061
CONNECTION	-11062
FileHeader	-11063
checkValue	-11064
kerCorrupted	-11065
▁SendMessage	-11066
WriteBlobLong	-11067
+5	-11068
INF	-11069
IRQ	-11070
Job	-11071
RFC	-11072
ade	-11073
but	-11074
cla	-11075
far	-11076
isc	-11077
mix	-11078
mtc	-11079
▁26	-11080
▁Qu	-11081
▁dt	-11082
Fact	-11083
eler	-11084
pull	-11085
▁FTP	-11086
▁acl	-11087
CAIRO	-11088
Delta	-11089
Dicts	-11090
Saved	-11091
atype	-11092
daddr	-11093
dense	-11094
opend	-11095
▁MPEG	-11096
▁says	-11097
linear	-11098
outlen	-11099
shinfo	-11100
▁attrs	-11101
▁dendl	-11102
Changed	-11103
Pending	-11104
chained	-11105
▁Option	-11106
▁Unable	-11107
▁assign	-11108
▁gtypes	-11109
▁padlen	-11110
▁splits	-11111
▁strict	-11112
IsString	-11113
VALIDATE	-11114
attached	-11115
negative	-11116
▁primary	-11117
▁absolute	-11118
▁changing	-11119
▁download	-11120
▁tagstack	-11121
.3	-11122
FM	-11123
PQ	-11124
xE	-11125
EOS	-11126
Ins	-11127
Mac	-11128
UTC	-11129
anc	-11130
gpg	-11131
mrk	-11132
ssy	-11133
MAIL	-11134
PDFO	-11135
Play	-11136
THUM	-11137
ckey	-11138
cmod	-11139
curc	-11140
doff	-11141
fenc	-11142
greg	-11143
idle	-11144
nick	-11145
▁10,	-11146
▁IPC	-11147
▁LDB	-11148
▁Ref	-11149
▁YAM	-11150
▁dot	-11151
▁fil	-11152
▁oap	-11153
▁qtm	-11154
▁rdp	-11155
▁scd	-11156
▁vnc	-11157
SPAWN	-11158
VANCE	-11159
guest	-11160
igure	-11161
itude	-11162
pires	-11163
ublic	-11164
▁Last	-11165
▁anal	-11166
▁endp	-11167
▁kind	-11168
EACCES	-11169
SIGNAL	-11170
Worker	-11171
subobj	-11172
▁65536	-11173
▁NLMSG	-11174
▁ascii	-11175
▁moved	-11176
[2]<<16	-11177
[3]<<24	-11178
general	-11179
hostkey	-11180
nemonic	-11181
▁bplist	-11182
▁zRight	-11183
TEMPLATE	-11184
boundary	-11185
datagram	-11186
▁reverse	-11187
▁strncmp	-11188
▁trusted	-11189
▁windows	-11190
Subsystem	-11191
quivalent	-11192
▁TellBlob	-11193
▁addReply	-11194
▁cmptparm	-11195
▁defaults	-11196
ParserCtxt	-11197
JPEGProcess	-11198
▁capability	-11199
▁decompress	-11200
StringToLong	-11201
PushShortPixel	-11202
Me	-11203
[\	-11204
>=0	-11205
Mar	-11206
Opt	-11207
PIO	-11208
Try	-11209
▁7:	-11210
▁CS	-11211
▁[0	-11212
FIED	-11213
FLAC	-11214
ICAL	-11215
sack	-11216
voip	-11217
▁BST	-11218
▁LSB	-11219
▁SEC	-11220
▁aud	-11221
▁dvi	-11222
▁tbl	-11223
Multi	-11224
OPHER	-11225
arith	-11226
cover	-11227
freep	-11228
hered	-11229
milar	-11230
rieve	-11231
▁Oper	-11232
▁TEMP	-11233
▁VFIO	-11234
usters	-11235
vertex	-11236
▁JERRY	-11237
▁PyErr	-11238
▁msize	-11239
▁route	-11240
▁seems	-11241
▁seqtt	-11242
▁unused	-11243
commands	-11244
handlers	-11245
uiColors	-11246
▁subtype	-11247
▁modified	-11248
▁vertical	-11249
▁collection	-11250
104	-11251
DIE	-11252
NFT	-11253
PEC	-11254
PLT	-11255
Rdm	-11256
TAP	-11257
agf	-11258
avi	-11259
git	-11260
tar	-11261
▁*_	-11262
▁Sc	-11263
▁xx	-11264
▁yp	-11265
915_	-11266
IDAT	-11267
KILL	-11268
LOGL	-11269
canf	-11270
heet	-11271
ikon	-11272
nego	-11273
onal	-11274
once	-11275
sVar	-11276
▁ANY	-11277
▁MCA	-11278
▁XCL	-11279
▁bdf	-11280
▁epf	-11281
▁few	-11282
CLONE	-11283
ERVER	-11284
STRIP	-11285
Stage	-11286
activ	-11287
asure	-11288
embed	-11289
exact	-11290
iters	-11291
laint	-11292
named	-11293
relse	-11294
slope	-11295
▁FROM	-11296
▁MUST	-11297
▁Next	-11298
▁come	-11299
▁outp	-11300
MinMax	-11301
Phrase	-11302
TRANSP	-11303
TUNNEL	-11304
fixnum	-11305
protos	-11306
sscanf	-11307
tcount	-11308
▁IPADD	-11309
▁RECIP	-11310
▁dummy	-11311
▁white	-11312
BACKREF	-11313
pretval	-11314
▁Cannot	-11315
▁EINVAL	-11316
▁Enable	-11317
▁Select	-11318
▁libpng	-11319
▁schema	-11320
▁splice	-11321
ToString	-11322
▁Request	-11323
▁linelen	-11324
▁preword	-11325
▁scaling	-11326
▁scatter	-11327
getNumber	-11328
outHeader	-11329
persample	-11330
▁GetImage	-11331
LinkedList	-11332
Preserving	-11333
SampleRate	-11334
▁automatic	-11335
▁effective	-11336
▁extraargs	-11337
▁ruleOffset	-11338
nCurrentOrder	-11339
▁GeometryInfo	-11340
▁PLANARCONFIG	-11341
▁compatibility	-11342
kd	-11343
oa	-11344
",&	-11345
36,	-11346
EFF	-11347
TIG	-11348
[64	-11349
hdl	-11350
ili	-11351
▁60	-11352
▁CI	-11353
Conn	-11354
LEAF	-11355
MPTY	-11356
cdev	-11357
kKey	-11358
sbit	-11359
▁":"	-11360
▁esp	-11361
▁ide	-11362
▁odd	-11363
Extra	-11364
▁LIST	-11365
▁bias	-11366
▁java	-11367
▁leaf	-11368
▁mime	-11369
▁pmac	-11370
▁wave	-11371
Bezier	-11372
LOGPIO	-11373
itches	-11374
ragged	-11375
▁Array	-11376
▁Level	-11377
▁XEVNT	-11378
▁early	-11379
▁ftell	-11380
▁nhoff	-11381
▁quick	-11382
ctories	-11383
fibsize	-11384
stringl	-11385
▁Change	-11386
▁PerlIO	-11387
▁Syntax	-11388
▁pseudo	-11389
▁dirname	-11390
▁filters	-11391
▁outline	-11392
LayerInfo	-11393
▁immediate	-11394
▁transform	-11395
.2	-11396
Bs	-11397
Hi	-11398
YR	-11399
az	-11400
bm	-11401
pW	-11402
13:	-11403
800	-11404
Bus	-11405
IOD	-11406
PAG	-11407
STY	-11408
Typ	-11409
dpb	-11410
fld	-11411
har	-11412
hop	-11413
onl	-11414
ors	-11415
sup	-11416
xmt	-11417
▁29	-11418
▁Ci	-11419
▁EP	-11420
▁['	-11421
ADDE	-11422
Dire	-11423
GPIO	-11424
Inst	-11425
gain	-11426
getu	-11427
hard	-11428
icro	-11429
mono	-11430
tool	-11431
▁KDC	-11432
▁LEN	-11433
▁aes	-11434
▁aut	-11435
▁mxf	-11436
▁rfc	-11437
65536	-11438
Enter	-11439
PROXY	-11440
QUOTA	-11441
ROTLI	-11442
adler	-11443
erous	-11444
fixup	-11445
mojom	-11446
outer	-11447
stdin	-11448
xtlen	-11449
▁BACK	-11450
▁pred	-11451
REPEAT	-11452
TRANSF	-11453
itched	-11454
limits	-11455
pbDest	-11456
series	-11457
sorted	-11458
zRight	-11459
▁-----	-11460
▁nofor	-11461
▁sense	-11462
▁slave	-11463
ILLEGAL	-11464
Illegal	-11465
PRIMARY	-11466
Reverse	-11467
Segment	-11468
catalog	-11469
domains	-11470
inished	-11471
▁BROTLI	-11472
▁OPTION	-11473
▁cgroup	-11474
▁hinter	-11475
▁linenr	-11476
▁locked	-11477
▁matvar	-11478
▁rtattr	-11479
CALLBACK	-11480
LICATION	-11481
Previous	-11482
REGISTER	-11483
ToNative	-11484
▁cmdopts	-11485
▁encoder	-11486
▁exactly	-11487
▁fileRef	-11488
▁garbage	-11489
▁graymap	-11490
▁surface	-11491
PDFObject	-11492
filenames	-11493
ToMnemonic	-11494
denominator	-11495
▁Navigation	-11496
▁operations	-11497
▁validation	-11498
GetRemaining	-11499
QuantizeInfo	-11500
▁OpaqueAlpha	-11501
PDFObjectHandle	-11502
▁BlendPixelTrait	-11503
▁SetPixelOpacity	-11504
bt	-11505
gu	-11506
170	-11507
32>	-11508
OWN	-11509
uni	-11510
▁21	-11511
▁CV	-11512
▁GD	-11513
▁xp	-11514
BAND	-11515
Flat	-11516
Keys	-11517
SPAR	-11518
VLAN	-11519
fall	-11520
mdup	-11521
radi	-11522
uess	-11523
▁NFS	-11524
▁SMB	-11525
▁WIN	-11526
▁eop	-11527
▁sep	-11528
PyExc	-11529
anded	-11530
limbs	-11531
▁2000	-11532
▁Then	-11533
▁curl	-11534
▁iCol	-11535
filled	-11536
▁DMARC	-11537
▁avail	-11538
▁carry	-11539
▁thing	-11540
▁border	-11541
▁letter	-11542
COMPLETE	-11543
COMPRESS	-11544
latforms	-11545
▁formats	-11546
internals	-11547
multicast	-11548
stacksize	-11549
▁JSObject	-11550
▁supports	-11551
▁indicates	-11552
▁mandatory	-11553
▁cupsFilePrintf	-11554
,2	-11555
.,	-11556
3"	-11557
47	-11558
hv	-11559
pq	-11560
tw	-11561
":"	-11562
786	-11563
BIM	-11564
DOM	-11565
ECC	-11566
Gen	-11567
HPE	-11568
RTL	-11569
VIS	-11570
brk	-11571
cls	-11572
eax	-11573
msb	-11574
srq	-11575
▁DD	-11576
▁nc	-11577
▁nd	-11578
BLOB	-11579
CEIL	-11580
GRAM	-11581
ONCE	-11582
OPOR	-11583
Syms	-11584
TACH	-11585
easy	-11586
hdrl	-11587
huge	-11588
newp	-11589
phan	-11590
pics	-11591
sint	-11592
yend	-11593
▁","	-11594
▁May	-11595
▁VER	-11596
▁bcf	-11597
▁nor	-11598
▁pes	-11599
▁vec	-11600
OPADD	-11601
OPAND	-11602
OPXOR	-11603
STAND	-11604
bwrap	-11605
scape	-11606
shuff	-11607
slang	-11608
uting	-11609
▁FORM	-11610
▁PCAP	-11611
▁gpio	-11612
▁grad	-11613
▁hack	-11614
▁loff	-11615
▁refe	-11616
▁sidx	-11617
▁tool	-11618
Binder	-11619
GetInt	-11620
Needed	-11621
[2]<<8	-11622
cblack	-11623
tanext	-11624
▁Count	-11625
▁FLAGS	-11626
▁named	-11627
▁xfree	-11628
▁yyerr	-11629
ADDELEM	-11630
GroupBy	-11631
OPMINUS	-11632
Variant	-11633
onymous	-11634
▁Matrix	-11635
▁PFETCH	-11636
▁ccline	-11637
▁contin	-11638
▁fdctrl	-11639
▁guchar	-11640
DEBUGGER	-11641
OPDIVIDE	-11642
OPMODULO	-11643
ValuePtr	-11644
▁Success	-11645
▁fribidi	-11646
▁manager	-11647
▁regnode	-11648
▁specify	-11649
OPINVERSE	-11650
▁POLARSSL	-11651
▁receiver	-11652
OPMULTIPLY	-11653
WithBuffer	-11654
processing	-11655
▁CacheView	-11656
mDataSource	-11657
▁SyncImages	-11658
▁libcnotify	-11659
SecurityPolicy	-11660
▁MagickEpsilon	-11661
EvaluateOperator	-11662
EW	-11663
PV	-11664
nx	-11665
1<<	-11666
64[	-11667
DID	-11668
ctr	-11669
irs	-11670
kit	-11671
yze	-11672
▁'|	-11673
▁hh	-11674
SHOW	-11675
Step	-11676
bprm	-11677
tcon	-11678
▁32-	-11679
▁CRC	-11680
▁Pri	-11681
▁RMT	-11682
▁fds	-11683
CHANG	-11684
cases	-11685
ences	-11686
irrus	-11687
▁half	-11688
▁soft	-11689
errbuf	-11690
newBox	-11691
▁BLOCK	-11692
▁Layer	-11693
▁uchar	-11694
ability	-11695
checked	-11696
waiting	-11697
Database	-11698
LOCATION	-11699
behavior	-11700
▁Runtime	-11701
▁namelen	-11702
addresses	-11703
claration	-11704
normalize	-11705
▁delegate	-11706
navigation	-11707
▁controller	-11708
20:	-11709
=16	-11710
=4*	-11711
AMS	-11712
DFF	-11713
ELL	-11714
Got	-11715
hoc	-11716
lee	-11717
nnz	-11718
pes	-11719
psd	-11720
reo	-11721
svc	-11722
tcm	-11723
▁"#	-11724
▁'7	-11725
▁33	-11726
▁ra	-11727
1414	-11728
REAL	-11729
SEXT	-11730
Tray	-11731
VERS	-11732
anno	-11733
ante	-11734
fact	-11735
glob	-11736
imal	-11737
lode	-11738
nMem	-11739
ndpi	-11740
▁0.5	-11741
▁Box	-11742
▁Gra	-11743
▁Reg	-11744
▁cvt	-11745
▁dim	-11746
▁fpi	-11747
▁lld	-11748
▁pki	-11749
Files	-11750
GRAPH	-11751
ITIZE	-11752
Rects	-11753
ctime	-11754
ernal	-11755
front	-11756
users	-11757
▁Does	-11758
▁Onig	-11759
▁cmyk	-11760
▁guar	-11761
▁mbfl	-11762
▁mlen	-11763
Folder	-11764
[0]<<8	-11765
gstate	-11766
matvar	-11767
npages	-11768
raille	-11769
tstamp	-11770
▁WRITE	-11771
▁decla	-11772
▁freed	-11773
▁infof	-11774
▁outer	-11775
▁scope	-11776
▁taken	-11777
license	-11778
mediafp	-11779
resolve	-11780
▁Frames	-11781
▁conver	-11782
ColorMap	-11783
INCOMPAT	-11784
SANITIZE	-11785
newstyle	-11786
pOrderBy	-11787
revision	-11788
▁bufsize	-11789
▁circuit	-11790
▁cleared	-11791
▁dynamic	-11792
▁handles	-11793
▁largest	-11794
▁opacity	-11795
▁opening	-11796
▁tparams	-11797
▁updates	-11798
▁visible	-11799
countered	-11800
recipient	-11801
soundfold	-11802
▁pkiDebug	-11803
deblocking	-11804
▁delivered	-11805
▁runLength	-11806
GetBlobSize	-11807
▁dimensions	-11808
curCodeBlock	-11809
▁connections	-11810
GrayscaleType	-11811
eshInterpolate	-11812
DestroyCacheView	-11813
]|	-11814
01,	-11815
758	-11816
SUP	-11817
asf	-11818
csp	-11819
▁45	-11820
▁NS	-11821
EDED	-11822
ZEND	-11823
abrt	-11824
ctal	-11825
lems	-11826
repo	-11827
▁NEW	-11828
▁dht	-11829
▁srv	-11830
QUIET	-11831
SPLIT	-11832
[128]	-11833
funcs	-11834
llist	-11835
sider	-11836
uming	-11837
watch	-11838
▁Code	-11839
▁From	-11840
▁Text	-11841
▁four	-11842
▁nick	-11843
▁wild	-11844
interp	-11845
▁Avoid	-11846
▁macro	-11847
▁maybe	-11848
▁nonce	-11849
ATIONAL	-11850
example	-11851
▁GError	-11852
▁counts	-11853
▁frozen	-11854
▁quoted	-11855
▁writer	-11856
AndCheck	-11857
Scanline	-11858
▁quality	-11859
▁resolve	-11860
DIRECTORY	-11861
▁explicitly	-11862
▁negotiation	-11863
▁initializing	-11864
PW	-11865
+2*	-11866
2==	-11867
ATH	-11868
Pat	-11869
WAV	-11870
bpc	-11871
gom	-11872
ton	-11873
tvp	-11874
wmf	-11875
▁Vi	-11876
▁bi	-11877
NING	-11878
Rows	-11879
WebP	-11880
cifs	-11881
gAMA	-11882
mpls	-11883
outp	-11884
perf	-11885
▁RPM	-11886
▁SCM	-11887
▁UEV	-11888
▁cfm	-11889
▁eol	-11890
▁pck	-11891
▁six	-11892
▁sli	-11893
ROUGH	-11894
SHARE	-11895
White	-11896
dummy	-11897
inout	-11898
paint	-11899
paths	-11900
sical	-11901
unnel	-11902
▁MSBO	-11903
▁NONE	-11904
▁Plan	-11905
▁beco	-11906
▁tell	-11907
100.0*	-11908
Assign	-11909
DEINIT	-11910
IHEVCD	-11911
PopHex	-11912
RIPTOR	-11913
Termin	-11914
caplen	-11915
gomery	-11916
tended	-11917
wvbits	-11918
▁MOUNT	-11919
▁XFree	-11920
▁dport	-11921
▁newed	-11922
▁three	-11923
▁yyssp	-11924
DISPLAY	-11925
OCATION	-11926
Runtime	-11927
[0]<<24	-11928
[1]<<16	-11929
backref	-11930
dropped	-11931
irmware	-11932
isprint	-11933
require	-11934
rextlen	-11935
▁Device	-11936
▁OFTrue	-11937
▁Visual	-11938
▁issuer	-11939
▁nmatch	-11940
Contains	-11941
Coverage	-11942
Feedback	-11943
GETCHECK	-11944
INTERVAL	-11945
POSITION	-11946
PROGRESS	-11947
Producer	-11948
delivery	-11949
intfdata	-11950
neighbor	-11951
startpos	-11952
subflags	-11953
▁SUPPORT	-11954
▁functor	-11955
▁strFull	-11956
Photoshop	-11957
Temporary	-11958
integrity	-11959
intensity	-11960
▁MSBOrder	-11961
▁creating	-11962
▁exceeded	-11963
▁guarante	-11964
▁inserted	-11965
▁iterator	-11966
Compliance	-11967
DESCRIPTOR	-11968
Heuristics	-11969
▁normalize	-11970
▁secondary	-11971
▁smartlist	-11972
Framebuffer	-11973
PopHexPixel	-11974
▁mLastTrack	-11975
descriptions	-11976
▁Transparent	-11977
▁StringToLong	-11978
-7	-11979
8",	-11980
Com	-11981
Dev	-11982
Dst	-11983
NAK	-11984
adb	-11985
gpu	-11986
ips	-11987
stl	-11988
usr	-11989
▁4.	-11990
▁</	-11991
▁ef	-11992
▁pm	-11993
Ring	-11994
gint	-11995
room	-11996
▁'&'	-11997
▁ISO	-11998
▁Met	-11999
▁rpy	-12000
Minor	-12001
[-3].	-12002
archy	-12003
aring	-12004
onses	-12005
osing	-12006
smart	-12007
unded	-12008
▁join	-12009
▁prec	-12010
▁sftp	-12011
COOKIE	-12012
REJECT	-12013
Second	-12014
always	-12015
▁CLEAR	-12016
▁eigrp	-12017
▁reach	-12018
Extract	-12019
RESTORE	-12020
appendc	-12021
▁stdout	-12022
playTree	-12023
toString	-12024
▁earlier	-12025
▁streams	-12026
▁strncat	-12027
selection	-12028
threshold	-12029
▁attached	-12030
GetStringUTF	-12031
-\	-12032
Gr	-12033
4",	-12034
DHE	-12035
SRP	-12036
Too	-12037
eoc	-12038
ike	-12039
lou	-12040
sat	-12041
scp	-12042
yph	-12043
▁-3	-12044
▁EV	-12045
▁gt	-12046
Cond	-12047
ECDH	-12048
MAKE	-12049
NFTA	-12050
ROUP	-12051
cHRM	-12052
cles	-12053
icsk	-12054
iend	-12055
ngbr	-12056
ptrs	-12057
reat	-12058
rier	-12059
star	-12060
▁%02	-12061
▁ARC	-12062
▁COM	-12063
▁Mng	-12064
▁dex	-12065
▁saf	-12066
LENOF	-12067
Matri	-12068
NumOf	-12069
SLASH	-12070
URNAL	-12071
imity	-12072
pango	-12073
pscan	-12074
virus	-12075
▁'\''	-12076
▁SCMP	-12077
▁SWAP	-12078
▁Warn	-12079
▁bson	-12080
▁rock	-12081
▁tgsi	-12082
Multid	-12083
[1024]	-12084
[3]<<8	-12085
cesAre	-12086
cluded	-12087
getArg	-12088
isword	-12089
pEList	-12090
uation	-12091
verity	-12092
▁Apply	-12093
▁RProc	-12094
▁htonl	-12095
▁xmlns	-12096
Monitor	-12097
alMatri	-12098
history	-12099
iration	-12100
▁ARCMSR	-12101
▁Source	-12102
▁Values	-12103
▁aiptek	-12104
▁attrib	-12105
▁krbtgt	-12106
▁visual	-12107
Commands	-12108
RotAngle	-12109
miDOUBLE	-12110
miSINGLE	-12111
strument	-12112
▁PragTyp	-12113
▁autokey	-12114
ImageList	-12115
IsPalette	-12116
Operation	-12117
protected	-12118
▁ExitLoop	-12119
▁embedded	-12120
▁exponent	-12121
▁procName	-12122
▁volatile	-12123
Collection	-12124
Whitespace	-12125
cmdmessage	-12126
▁rendering	-12127
▁selection	-12128
▁PCDGetBits	-12129
alMatricesAre	-12130
Multidimension	-12131
samplesperpixel	-12132
/3	-12133
05	-12134
WW	-12135
aad	-12136
▁tf	-12137
ENTR	-12138
PROT	-12139
STAR	-12140
[32]	-12141
tact	-12142
▁NFT	-12143
▁TUN	-12144
▁VMX	-12145
▁evt	-12146
▁hub	-12147
▁sql	-12148
▁srb	-12149
▁why	-12150
Shift	-12151
chron	-12152
ialog	-12153
prkey	-12154
▁trig	-12155
PADATA	-12156
▁fully	-12157
▁xattr	-12158
Discard	-12159
Subject	-12160
icients	-12161
orithms	-12162
reqbody	-12163
sidered	-12164
visited	-12165
▁Adjust	-12166
▁GOPHER	-12167
▁answer	-12168
▁layers	-12169
▁leaves	-12170
▁semant	-12171
Required	-12172
▁Current	-12173
▁yyerror	-12174
Tokenizer	-12175
preferred	-12176
▁bounding	-12177
▁dispatch	-12178
▁selector	-12179
colorTable	-12180
invalidate	-12181
PseudoClass	-12182
numChannels	-12183
▁terminator	-12184
BitsPerPixel	-12185
▁conditional	-12186
▁GetTensorData	-12187
8"	-12188
GG	-12189
KZ	-12190
]+	-12191
"",	-12192
-2,	-12193
24:	-12194
BAR	-12195
CAF	-12196
Let	-12197
MAY	-12198
NTI	-12199
cab	-12200
dnp	-12201
esi	-12202
nfs	-12203
nif	-12204
nul	-12205
ril	-12206
was	-12207
▁%3	-12208
▁AE	-12209
▁IE	-12210
▁PF	-12211
▁kc	-12212
*256	-12213
CIRC	-12214
Lang	-12215
MISC	-12216
TRFS	-12217
TRIE	-12218
[0][	-12219
anit	-12220
cmsg	-12221
flop	-12222
gent	-12223
lenp	-12224
mdev	-12225
mtfa	-12226
nCol	-12227
nDqt	-12228
nSof	-12229
pels	-12230
▁CLO	-12231
▁Def	-12232
▁IEX	-12233
▁MOB	-12234
▁Put	-12235
▁RTA	-12236
▁mer	-12237
▁rai	-12238
▁scp	-12239
brace	-12240
dport	-12241
eigen	-12242
encap	-12243
grees	-12244
igher	-12245
indir	-12246
pathv	-12247
swork	-12248
voked	-12249
▁RULE	-12250
▁bgnd	-12251
LIBPNG	-12252
PASSWD	-12253
Prefix	-12254
intsts	-12255
uction	-12256
▁After	-12257
▁Build	-12258
▁Cubic	-12259
▁Quant	-12260
▁eexec	-12261
▁haven	-12262
▁penum	-12263
▁score	-12264
Braille	-12265
HANDLED	-12266
Machine	-12267
[0]<<16	-12268
[1]<<24	-12269
delayed	-12270
mailbox	-12271
parents	-12272
▁caplen	-12273
▁cblack	-12274
▁mapped	-12275
▁optarg	-12276
▁pragma	-12277
▁redmap	-12278
▁rlcinf	-12279
▁secure	-12280
▁splash	-12281
Consumer	-12282
TRANSFER	-12283
UNSIGNED	-12284
codebook	-12285
laintext	-12286
nPattern	-12287
trailing	-12288
tvparser	-12289
▁YYSTACK	-12290
▁bluemap	-12291
▁respect	-12292
Encrypted	-12293
alignment	-12294
▁STRLENOF	-12295
▁annotate	-12296
▁greenmap	-12297
▁valuePop	-12298
BodySerial	-12299
prewordlen	-12300
▁Constrain	-12301
▁bufferPtr	-12302
▁threshold	-12303
CorruptImage	-12304
appendFormat	-12305
outputStream	-12306
endOptionBlock	-12307
▁decompression	-12308
BrailleIndicator	-12309
ReadBlobMSBShort	-12310
beginOptionBlock	-12311
,3	-12312
ki	-12313
px	-12314
zp	-12315
56,	-12316
CTR	-12317
ges	-12318
gst	-12319
▁6,	-12320
▁90	-12321
▁em	-12322
▁ga	-12323
▁mk	-12324
Http	-12325
SOFA	-12326
uced	-12327
▁BER	-12328
▁nfc	-12329
▁sil	-12330
▁tif	-12331
▁wpc	-12332
cksum	-12333
loced	-12334
movie	-12335
roker	-12336
▁Fill	-12337
▁With	-12338
▁hook	-12339
▁mobi	-12340
▁sbuf	-12341
▁virt	-12342
ERRBUF	-12343
atalog	-12344
fclose	-12345
moving	-12346
seqval	-12347
thresh	-12348
▁'\0',	-12349
▁inlen	-12350
ALIGNED	-12351
OPTIONS	-12352
inQueue	-12353
▁levels	-12354
▁stderr	-12355
ImGuiCol	-12356
truncate	-12357
▁browser	-12358
▁enforce	-12359
translate	-12360
▁included	-12361
▁language	-12362
DECRYPTION	-12363
▁associated	-12364
PushStyleColor	-12365
GM	-12366
Ob	-12367
"%%	-12368
112	-12369
14:	-12370
DES	-12371
Loc	-12372
PUB	-12373
RDF	-12374
]++	-12375
dct	-12376
eol	-12377
pnt	-12378
qpc	-12379
tos	-12380
▁AM	-12381
▁MK	-12382
▁bv	-12383
▁ck	-12384
▁eb	-12385
▁gb	-12386
▁hi	-12387
▁kv	-12388
▁pF	-12389
▁rf	-12390
▁ue	-12391
9660	-12392
Comb	-12393
IPER	-12394
MORE	-12395
ROOT	-12396
Segs	-12397
XFER	-12398
[15]	-12399
][2]	-12400
clnt	-12401
cseq	-12402
enta	-12403
feed	-12404
four	-12405
htab	-12406
offs	-12407
pcap	-12408
rink	-12409
rock	-12410
▁Del	-12411
▁SFD	-12412
▁SPL	-12413
▁SYN	-12414
▁UDP	-12415
▁cau	-12416
▁exr	-12417
▁rix	-12418
▁trg	-12419
Fatal	-12420
Power	-12421
Units	-12422
https	-12423
infos	-12424
phnum	-12425
pkeys	-12426
retch	-12427
tools	-12428
utter	-12429
▁CVAR	-12430
▁GRAY	-12431
▁Mark	-12432
▁Must	-12433
▁grow	-12434
▁kmem	-12435
▁pSub	-12436
▁tcon	-12437
▁xslt	-12438
Adjust	-12439
InName	-12440
Marker	-12441
Scroll	-12442
dumper	-12443
elimit	-12444
hdrlen	-12445
levant	-12446
posure	-12447
▁Audio	-12448
▁JsVar	-12449
▁TABLE	-12450
▁alert	-12451
▁modes	-12452
BRACKET	-12453
CODECID	-12454
DECODER	-12455
Program	-12456
compact	-12457
epsilon	-12458
opendir	-12459
▁IHEVCD	-12460
▁getenv	-12461
Explicit	-12462
MISMATCH	-12463
PROPERTY	-12464
bytecode	-12465
outQueue	-12466
▁UNICODE	-12467
▁chassis	-12468
▁delayed	-12469
NewObject	-12470
emphRules	-12471
errSyntax	-12472
unaligned	-12473
▁OFString	-12474
▁Remember	-12475
▁channelp	-12476
▁problems	-12477
APPLICATION	-12478
▁QueryColor	-12479
OutputBuffer	-12480
bitPreserving	-12481
imityPosition	-12482
pB	-12483
xD	-12484
VIM	-12485
ccs	-12486
vor	-12487
▁63	-12488
▁AB	-12489
▁LF	-12490
▁SA	-12491
▁pn	-12492
▁vd	-12493
▁xd	-12494
Cred	-12495
GOOD	-12496
LING	-12497
LOOK	-12498
LVAL	-12499
Self	-12500
TTLS	-12501
Tool	-12502
capt	-12503
pIdx	-12504
pawn	-12505
ppos	-12506
when	-12507
▁102	-12508
▁204	-12509
▁VIP	-12510
arest	-12511
eries	-12512
needs	-12513
parms	-12514
▁Here	-12515
▁MASK	-12516
Raster	-12517
SCHEME	-12518
anning	-12519
colour	-12520
detect	-12521
maxlen	-12522
olated	-12523
timeri	-12524
▁CHUNK	-12525
▁colnr	-12526
▁newnp	-12527
▁reloc	-12528
▁stdin	-12529
iccprof	-12530
▁MYSOFA	-12531
▁Sanity	-12532
▁entity	-12533
▁strtol	-12534
▁unpack	-12535
INSTANCE	-12536
disabled	-12537
unctions	-12538
▁pthread	-12539
▁startup	-12540
LastError	-12541
Selection	-12542
SetString	-12543
▁TIFFRead	-12544
disconnect	-12545
▁connected	-12546
▁decrypted	-12547
,8	-12548
91	-12549
Cy	-12550
hf	-12551
uu	-12552
~~	-12553
105	-12554
146	-12555
15:	-12556
IPC	-12557
ITS	-12558
SAK	-12559
Sel	-12560
TIC	-12561
UCS	-12562
bbx	-12563
bet	-12564
edy	-12565
gui	-12566
hfs	-12567
jls	-12568
lzx	-12569
mig	-12570
pcl	-12571
pgm	-12572
prf	-12573
srf	-12574
vmx	-12575
▁'!	-12576
▁TY	-12577
▁]\	-12578
▁tb	-12579
▁tu	-12580
Cast	-12581
DECL	-12582
HOLD	-12583
Prag	-12584
\">\	-12585
_31_	-12586
cfgt	-12587
fidp	-12588
fnum	-12589
hevc	-12590
lves	-12591
mdat	-12592
pamh	-12593
pebs	-12594
▁CIP	-12595
▁Ins	-12596
▁PER	-12597
▁Top	-12598
▁eth	-12599
▁pic	-12600
▁tid	-12601
ALLTH	-12602
LTYPE	-12603
Mount	-12604
Paint	-12605
devel	-12606
ftone	-12607
haped	-12608
icons	-12609
ifile	-12610
msvga	-12611
nbits	-12612
procs	-12613
shell	-12614
shoot	-12615
tcomp	-12616
ushed	-12617
▁Jbig	-12618
▁NAME	-12619
▁PICT	-12620
▁fptr	-12621
▁libp	-12622
▁ntop	-12623
▁vlan	-12624
▁wide	-12625
▁xfrm	-12626
Before	-12627
Button	-12628
Direct	-12629
IDENTI	-12630
Subset	-12631
UNIPER	-12632
UNSPEC	-12633
bounce	-12634
quirks	-12635
selves	-12636
verdef	-12637
virtio	-12638
ytelen	-12639
▁GROUP	-12640
▁RELAY	-12641
▁TType	-12642
▁clock	-12643
▁ldout	-12644
▁pbSrc	-12645
▁refer	-12646
▁wants	-12647
BUFFERS	-12648
Disable	-12649
FOREACH	-12650
FilePtr	-12651
GENERAL	-12652
JSAMPLE	-12653
PICTURE	-12654
QUASHFS	-12655
aacraid	-12656
aliases	-12657
handled	-12658
inginfo	-12659
readlen	-12660
sockopt	-12661
▁Height	-12662
▁MODBUS	-12663
▁former	-12664
▁gdFree	-12665
EXPLICIT	-12666
FILETYPE	-12667
Possible	-12668
buffered	-12669
coinbase	-12670
existing	-12671
keyblock	-12672
selected	-12673
sibility	-12674
▁ReadDCM	-12675
▁Session	-12676
▁inbound	-12677
▁keyring	-12678
ImageType	-12679
OpenError	-12680
▁SQUASHFS	-12681
▁regstack	-12682
▁rotation	-12683
Timeseries	-12684
associated	-12685
outputFunc	-12686
▁grayscale	-12687
▁predictor	-12688
contextSize	-12689
metaoffsets	-12690
SetImageGray	-12691
paqueOpacity	-12692
shootinginfo	-12693
▁currentfile	-12694
▁encountered	-12695
bitspersample	-12696
▁transparency	-12697
TimeseriesBucket	-12698
2+	-12699
BGP	-12700
CER	-12701
DLV	-12702
KDB	-12703
lhs	-12704
rhs	-12705
MONT	-12706
shed	-12707
what	-12708
▁SPI	-12709
▁bss	-12710
▁rle	-12711
▁rtl	-12712
▁sel	-12713
▁sol	-12714
FIBER	-12715
again	-12716
alive	-12717
drive	-12718
iated	-12719
iinfo	-12720
▁4096	-12721
▁CHAN	-12722
▁Hash	-12723
▁dbuf	-12724
▁safi	-12725
▁walk	-12726
ToEnum	-12727
forced	-12728
inline	-12729
lacing	-12730
opened	-12731
orizer	-12732
▁EPERM	-12733
▁Ident	-12734
▁ready	-12735
▁xsize	-12736
DECRYPT	-12737
Failure	-12738
nOffset	-12739
newserv	-12740
▁Record	-12741
▁VMXNET	-12742
▁nspace	-12743
DONTWAIT	-12744
Reserved	-12745
SEPARATE	-12746
▁complet	-12747
▁treated	-12748
BITSTREAM	-12749
reachable	-12750
▁ruleChars	-12751
▁valuePush	-12752
▁interpreter	-12753
Authorization	-12754
Configuration	-12755
.]	-12756
JD	-12757
uf	-12758
,"8	-12759
--,	-12760
001	-12761
002	-12762
11,	-12763
FLA	-12764
GFP	-12765
VED	-12766
[-4	-12767
_3,	-12768
iop	-12769
kvp	-12770
oly	-12771
pag	-12772
xec	-12773
yes	-12774
▁"]	-12775
▁#%	-12776
▁..	-12777
▁Np	-12778
▁cx	-12779
70.0	-12780
CRED	-12781
Horz	-12782
SSID	-12783
Show	-12784
Wait	-12785
chor	-12786
raft	-12787
salt	-12788
xend	-12789
▁%08	-12790
▁'3'	-12791
▁12,	-12792
▁12:	-12793
▁Gif	-12794
▁Red	-12795
▁ctm	-12796
▁dls	-12797
▁ngx	-12798
▁rpx	-12799
▁sta	-12800
ALGOR	-12801
ANCEL	-12802
ASSOC	-12803
CATCH	-12804
Lines	-12805
PQExp	-12806
STYLE	-12807
Tiled	-12808
Using	-12809
biBit	-12810
carry	-12811
cname	-12812
cpuid	-12813
gered	-12814
idget	-12815
iltin	-12816
latin	-12817
pktap	-12818
yyssp	-12819
zeros	-12820
▁"%02	-12821
▁CONN	-12822
▁EXTR	-12823
▁NTLM	-12824
▁Port	-12825
▁goes	-12826
▁leak	-12827
▁poll	-12828
▁skew	-12829
▁uuid	-12830
▁vmcb	-12831
▁zgfx	-12832
Remote	-12833
biSize	-12834
caller	-12835
unused	-12836
▁BUILD	-12837
▁CPUID	-12838
▁Trace	-12839
▁angle	-12840
▁bsize	-12841
▁fixup	-12842
▁noper	-12843
▁shard	-12844
▁wsctx	-12845
HANDLER	-12846
Startup	-12847
bufsize	-12848
created	-12849
factory	-12850
flipped	-12851
mainder	-12852
nullptr	-12853
portfwd	-12854
▁RClass	-12855
▁RETVAL	-12856
▁cached	-12857
▁couldn	-12858
▁transp	-12859
▁wvalue	-12860
COLORMAP	-12861
Pipeline	-12862
clusters	-12863
squashfs	-12864
▁constra	-12865
▁sockets	-12866
Animation	-12867
PerSample	-12868
TimeStamp	-12869
identific	-12870
▁PyObject	-12871
▁separate	-12872
▁subframe	-12873
Capability	-12874
enginesize	-12875
fileformat	-12876
terminated	-12877
unregister	-12878
▁thumbnail	-12879
PQExpBuffer	-12880
cancellable	-12881
declaration	-12882
▁Postscript	-12883
▁eexecWrite	-12884
FileOpenError	-12885
InterpolatePixel	-12886
8.	-12887
LK	-12888
RI	-12889
Sk	-12890
nz	-12891
,"-	-12892
150	-12893
Dig	-12894
IDS	-12895
ULD	-12896
dcm	-12897
▁',	-12898
▁UL	-12899
▁tk	-12900
▁xt	-12901
IXEL	-12902
NTLM	-12903
OICE	-12904
dobe	-12905
elif	-12906
lead	-12907
sets	-12908
tour	-12909
▁*--	-12910
▁den	-12911
ECDSA	-12912
OVERR	-12913
SLAVE	-12914
Tools	-12915
grade	-12916
heads	-12917
links	-12918
mkdir	-12919
warnx	-12920
▁PROP	-12921
▁SEND	-12922
▁none	-12923
▁runs	-12924
Broken	-12925
CRYPTO	-12926
ORIGIN	-12927
TIFFIs	-12928
arison	-12929
peated	-12930
▁PROTO	-12931
▁SNDRV	-12932
▁drive	-12933
▁failf	-12934
▁kiocb	-12935
▁speed	-12936
Headers	-12937
OBJECTS	-12938
gnoring	-12939
ication	-12940
▁Assume	-12941
▁datlen	-12942
▁ftypes	-12943
▁nblock	-12944
▁ragged	-12945
▁states	-12946
Sampling	-12947
notifier	-12948
▁accumul	-12949
▁percent	-12950
▁tensors	-12951
ErrorCode	-12952
Timestamp	-12953
▁children	-12954
▁resolved	-12955
Compatible	-12956
▁containing	-12957
Uncompressed	-12958
&_	-12959
*3	-12960
hc	-12961
hm	-12962
nv	-12963
xA	-12964
122	-12965
IED	-12966
IMF	-12967
QTT	-12968
SRT	-12969
Sql	-12970
bid	-12971
frr	-12972
mss	-12973
ska	-12974
xwd	-12975
▁'8	-12976
▁gz	-12977
CHAL	-12978
DEST	-12979
EMEM	-12980
FIND	-12981
MBOL	-12982
Slot	-12983
WBCT	-12984
[64]	-12985
fmts	-12986
nhml	-12987
ppnt	-12988
regn	-12989
runv	-12990
rval	-12991
srvr	-12992
▁HDR	-12993
▁SHT	-12994
▁VOL	-12995
▁inl	-12996
▁lsb	-12997
▁tcm	-12998
Apply	-12999
Drive	-13000
FLASH	-13001
LENGE	-13002
Nikon	-13003
OLLOW	-13004
PZVAL	-13005
Speed	-13006
TRUST	-13007
cores	-13008
dflag	-13009
erate	-13010
laddr	-13011
offer	-13012
pLeft	-13013
pired	-13014
prime	-13015
reprs	-13016
roska	-13017
sinfo	-13018
▁1.0,	-13019
▁PKCS	-13020
▁PLTE	-13021
▁Part	-13022
▁RBin	-13023
▁Sinc	-13024
▁abrt	-13025
▁repl	-13026
/470.0	-13027
Depend	-13028
Inject	-13029
cstack	-13030
gadget	-13031
kfetch	-13032
normal	-13033
precno	-13034
▁JCOND	-13035
▁Linux	-13036
▁MATCH	-13037
▁PARSE	-13038
▁coded	-13039
▁exfat	-13040
▁libpq	-13041
▁often	-13042
▁pnode	-13043
▁prior	-13044
▁shmem	-13045
REPLACE	-13046
alloced	-13047
licates	-13048
outputs	-13049
sighand	-13050
▁ANCHOR	-13051
▁Finish	-13052
▁STRLEN	-13053
▁bundle	-13054
▁percpu	-13055
▁trycmd	-13056
40000000	-13057
FICATION	-13058
Language	-13059
NONBLOCK	-13060
REDIRECT	-13061
TIFICATE	-13062
Unpacker	-13063
incoming	-13064
lineproc	-13065
recovery	-13066
▁DELIVER	-13067
▁account	-13068
▁imgData	-13069
▁netlink	-13070
▁similar	-13071
CHALLENGE	-13072
ImageBlob	-13073
MatrixMap	-13074
SPERPIXEL	-13075
broadcast	-13076
endstream	-13077
tmpstream	-13078
▁Unpacker	-13079
▁accepted	-13080
▁computed	-13081
EXPRESSION	-13082
Indication	-13083
characters	-13084
controller	-13085
insDataPtr	-13086
unattached	-13087
▁PixelInfo	-13088
GrayQuantum	-13089
▁kTfLiteInt	-13090
▁references	-13091
GetPixelLuma	-13092
▁descriptors	-13093
ToEnvironment	-13094
▁HTMLlineproc	-13095
ValueException	-13096
InjectImageBlob	-13097
JPEGCompression	-13098
MeshInterpolate	-13099
SAMPLESPERPIXEL	-13100
89	-13101
9_	-13102
PB	-13103
xr	-13104
CFG	-13105
Cat	-13106
DOS	-13107
pir	-13108
▁:%	-13109
▁FS	-13110
▁Or	-13111
BUFS	-13112
WIDE	-13113
ares	-13114
bbox	-13115
edBy	-13116
lval	-13117
safi	-13118
▁One	-13119
▁Var	-13120
▁dbg	-13121
▁pow	-13122
RESER	-13123
cycle	-13124
▁PIPE	-13125
▁beta	-13126
tracks	-13127
▁State	-13128
▁Video	-13129
▁audit	-13130
▁click	-13131
▁coeff	-13132
▁dwarf	-13133
▁idata	-13134
▁think	-13135
circuit	-13136
ternate	-13137
▁Search	-13138
Multiple	-13139
OVERFLOW	-13140
compound	-13141
indirect	-13142
▁dropped	-13143
▁matcher	-13144
▁started	-13145
Partition	-13146
recursive	-13147
▁basename	-13148
▁executed	-13149
Controller	-13150
▁callbacks	-13151
▁interpret	-13152
▁Additional	-13153
▁MagickExport	-13154
Eq	-13155
Nv	-13156
UA	-13157
tz	-13158
!=1	-13159
130	-13160
132	-13161
48,	-13162
920	-13163
?",	-13164
DSD	-13165
FFF	-13166
NSV	-13167
RAM	-13168
SEL	-13169
SIZ	-13170
SPO	-13171
TXT	-13172
[].	-13173
adj	-13174
aug	-13175
blt	-13176
cpl	-13177
his	-13178
rno	-13179
smb	-13180
spf	-13181
xdr	-13182
xfs	-13183
▁IW	-13184
▁dr	-13185
>>=1	-13186
FONT	-13187
NALU	-13188
Ptrs	-13189
VOID	-13190
[20]	-13191
arcb	-13192
catc	-13193
npos	-13194
olen	-13195
riff	-13196
spca	-13197
trie	-13198
upsd	-13199
▁Arg	-13200
▁TOR	-13201
▁iwl	-13202
▁jbd	-13203
▁nft	-13204
▁prn	-13205
▁spp	-13206
---*/	-13207
READY	-13208
SPEED	-13209
STYPE	-13210
[-4].	-13211
asses	-13212
bSwap	-13213
facet	-13214
strto	-13215
wrong	-13216
yymsg	-13217
▁EXPR	-13218
▁IFLA	-13219
▁MOBI	-13220
▁Phar	-13221
▁flog	-13222
▁isdn	-13223
▁loca	-13224
▁rval	-13225
▁trie	-13226
▁vfio	-13227
Guchar	-13228
REMOVE	-13229
UNUSED	-13230
ansion	-13231
ascent	-13232
detach	-13233
frbuff	-13234
quoted	-13235
uncomp	-13236
zalloc	-13237
▁PGRES	-13238
▁etick	-13239
▁hints	-13240
▁semsg	-13241
▁socks	-13242
▁sprog	-13243
GRAPHIC	-13244
INDEXED	-13245
checker	-13246
flagset	-13247
imation	-13248
lengths	-13249
residue	-13250
sockets	-13251
strsave	-13252
▁WarnNo	-13253
▁aggreg	-13254
▁chrome	-13255
▁vmsvga	-13256
Observer	-13257
STANDARD	-13258
Variable	-13259
severity	-13260
uminance	-13261
▁copying	-13262
▁encrypt	-13263
▁however	-13264
▁outInfo	-13265
Behaviour	-13266
Constrain	-13267
thumbnail	-13268
▁replaced	-13269
algorithms	-13270
bInterface	-13271
ilevelType	-13272
mChunkSize	-13273
privileged	-13274
ORIENTATION	-13275
▁attributed	-13276
▁infilesize	-13277
▁postscript	-13278
ParameterSet	-13279
notification	-13280
▁VdbeCoverage	-13281
▁notification	-13282
SetQuantumFormat	-13283
GEO	-13284
OBE	-13285
arp	-13286
bgp	-13287
crl	-13288
isk	-13289
ock	-13290
sTo	-13291
vls	-13292
▁!*	-13293
▁AT	-13294
▁SB	-13295
▁YR	-13296
▁mc	-13297
DENT	-13298
ISDN	-13299
THDR	-13300
TIAL	-13301
decl	-13302
newf	-13303
sequ	-13304
▁%.*	-13305
▁DIG	-13306
▁ava	-13307
▁unz	-13308
erson	-13309
ining	-13310
mance	-13311
radio	-13312
tdata	-13313
typed	-13314
▁ISOM	-13315
▁Long	-13316
▁hist	-13317
▁ilen	-13318
▁lets	-13319
▁pick	-13320
Common	-13321
hidden	-13322
ulated	-13323
▁Input	-13324
HEADERS	-13325
Replace	-13326
Support	-13327
bitmask	-13328
gettext	-13329
modulus	-13330
▁behind	-13331
▁belong	-13332
▁having	-13333
▁inInfo	-13334
filetype	-13335
formance	-13336
▁YYERROR	-13337
▁compose	-13338
▁mailbox	-13339
▁reorder	-13340
bitstream	-13341
▁supplied	-13342
getCString	-13343
▁Operation	-13344
81	-13345
LA	-13346
XI	-13347
^\	-13348
cv	-13349
-=4	-13350
24,	-13351
CHR	-13352
EAS	-13353
RCV	-13354
SID	-13355
TIV	-13356
VOL	-13357
bis	-13358
efi	-13359
fac	-13360
ldb	-13361
pdb	-13362
pfb	-13363
piv	-13364
rsc	-13365
typ	-13366
wds	-13367
▁QU	-13368
ACPI	-13369
IZER	-13370
Json	-13371
PDFA	-13372
Radi	-13373
SUFF	-13374
busy	-13375
dirh	-13376
inch	-13377
nOld	-13378
prio	-13379
yped	-13380
▁---	-13381
▁16-	-13382
▁LSP	-13383
▁MAP	-13384
▁PSP	-13385
▁bgp	-13386
▁hdu	-13387
▁irp	-13388
▁qpc	-13389
▁udp	-13390
CMARK	-13391
CREAT	-13392
DCONF	-13393
DELAY	-13394
Noise	-13395
Words	-13396
devic	-13397
gvarp	-13398
lpspi	-13399
spiro	-13400
study	-13401
▁EXCP	-13402
▁bbox	-13403
▁byts	-13404
▁cast	-13405
▁lang	-13406
Cancel	-13407
Crypto	-13408
Domain	-13409
ERRORS	-13410
NVMRdm	-13411
Public	-13412
REGION	-13413
Resize	-13414
entity	-13415
nblock	-13416
sisusb	-13417
▁FIELD	-13418
▁Proto	-13419
▁crash	-13420
▁idVal	-13421
▁plain	-13422
▁rettv	-13423
▁unhex	-13424
Clients	-13425
WrmLock	-13426
attempt	-13427
bdecode	-13428
elapsed	-13429
entropy	-13430
maptype	-13431
ortrait	-13432
pLogger	-13433
requeue	-13434
vention	-13435
▁Tunnel	-13436
▁applog	-13437
▁berval	-13438
▁brelse	-13439
▁listen	-13440
▁nlattr	-13441
▁orient	-13442
▁rotate	-13443
Fragment	-13444
NewArray	-13445
TIFFfree	-13446
angerous	-13447
destruct	-13448
fontname	-13449
isNumber	-13450
▁BGPTYPE	-13451
▁DECMARK	-13452
▁DataBuf	-13453
▁TORRENT	-13454
▁android	-13455
▁emalloc	-13456
▁exceeds	-13457
▁hdulist	-13458
▁records	-13459
▁skipped	-13460
Condition	-13461
FrameSize	-13462
LongIndex	-13463
addreason	-13464
negotiate	-13465
registers	-13466
▁OPTIONAL	-13467
▁matchcol	-13468
Associated	-13469
DataOffset	-13470
INVOCATION	-13471
rscpLogger	-13472
▁PixelsPer	-13473
▁backwards	-13474
▁registers	-13475
▁remainder	-13476
ChannelMask	-13477
Instruction	-13478
▁DestroyJNG	-13479
▁equivalent	-13480
▁evaluation	-13481
NumOfEntries	-13482
DelegateError	-13483
NVMRdmWrmLock	-13484
playBehaviour	-13485
▁ReadBlobLong	-13486
▁optimization	-13487
▁QStringLiteral	-13488
aa	-13489
mh	-13490
xh	-13491
~0	-13492
+12	-13493
,4*	-13494
140	-13495
2++	-13496
srp	-13497
ulk	-13498
▁4]	-13499
▁56	-13500
▁7,	-13501
▁TL	-13502
OULD	-13503
RESU	-13504
STOR	-13505
VIEW	-13506
alen	-13507
eric	-13508
inct	-13509
nskb	-13510
pDLS	-13511
peri	-13512
▁64,	-13513
▁ack	-13514
METRY	-13515
▁NEED	-13516
▁Pass	-13517
▁They	-13518
▁Wait	-13519
▁stoa	-13520
BLOCKS	-13521
NESTED	-13522
footer	-13523
nlines	-13524
notice	-13525
ptions	-13526
silent	-13527
vallen	-13528
▁pflac	-13529
▁ports	-13530
▁tests	-13531
Functor	-13532
VARNAME	-13533
▁commit	-13534
▁overla	-13535
▁xmlDoc	-13536
GEOMETRY	-13537
elliptic	-13538
grouping	-13539
ierarchy	-13540
▁AVMEDIA	-13541
▁REQUEST	-13542
▁nonzero	-13543
▁overlay	-13544
ReplyData	-13545
Signalled	-13546
numerator	-13547
striction	-13548
untrusted	-13549
▁segments	-13550
▁formatted	-13551
&&	-13552
CG	-13553
DG	-13554
Pl	-13555
WS	-13556
qx	-13557
',\	-13558
14,	-13559
2,&	-13560
504	-13561
940	-13562
EAR	-13563
Elt	-13564
Rtt	-13565
SPF	-13566
SRV	-13567
TIL	-13568
dbh	-13569
dda	-13570
ebx	-13571
emf	-13572
hub	-13573
msa	-13574
msx	-13575
nor	-13576
pch	-13577
pkg	-13578
▁57	-13579
▁py	-13580
2.54	-13581
Case	-13582
Chat	-13583
DKIM	-13584
EBAD	-13585
Jump	-13586
NEGO	-13587
Tiff	-13588
fdes	-13589
ohci	-13590
rand	-13591
setf	-13592
susb	-13593
year	-13594
▁BHW	-13595
▁CFF	-13596
▁PUT	-13597
▁arr	-13598
▁mmu	-13599
▁pmt	-13600
▁pwg	-13601
▁rpm	-13602
▁ttl	-13603
▁zde	-13604
BATCH	-13605
EBUSY	-13606
Exist	-13607
OLATE	-13608
QUICK	-13609
XATTR	-13610
cabac	-13611
clazz	-13612
phead	-13613
▁Fast	-13614
▁OPER	-13615
▁PINC	-13616
▁SKIP	-13617
▁Zero	-13618
▁acrn	-13619
▁alpn	-13620
▁onto	-13621
▁tctx	-13622
Border	-13623
Detail	-13624
FIXNUM	-13625
SUBEXP	-13626
arridx	-13627
fourcc	-13628
ingFor	-13629
rlvlno	-13630
tempor	-13631
▁DoGet	-13632
▁Setup	-13633
▁addrs	-13634
▁htype	-13635
▁lldpd	-13636
▁olist	-13637
▁produ	-13638
▁trust	-13639
MISSING	-13640
augment	-13641
elength	-13642
iserver	-13643
packAdd	-13644
ressive	-13645
trigger	-13646
utation	-13647
▁chosen	-13648
▁higher	-13649
▁ippGet	-13650
▁sisusb	-13651
▁textno	-13652
........	-13653
External	-13654
fgetline	-13655
ificates	-13656
isObject	-13657
multiple	-13658
▁PNGLong	-13659
▁Special	-13660
▁signals	-13661
CONTAINED	-13662
Construct	-13663
Direction	-13664
allocator	-13665
parsedtag	-13666
strresult	-13667
undefined	-13668
▁UNLIKELY	-13669
▁motorola	-13670
Dimensions	-13671
IDENTIFIER	-13672
PixelQueue	-13673
allocation	-13674
completion	-13675
extcomplex	-13676
▁fragments	-13677
CERTIFICATE	-13678
ISCONTAINED	-13679
ciphersuite	-13680
interpolate	-13681
▁considered	-13682
bufferoffset	-13683
UnicodeString	-13684
errSyntaxError	-13685
JA	-13686
NZ	-13687
hp	-13688
Iss	-13689
SCP	-13690
ctm	-13691
rmd	-13692
▁&_	-13693
▁CA	-13694
▁RP	-13695
▁RR	-13696
HIGH	-13697
Kind	-13698
TREE	-13699
simp	-13700
todo	-13701
vide	-13702
▁1],	-13703
▁64-	-13704
▁RUN	-13705
▁cid	-13706
▁fid	-13707
▁hit	-13708
▁wra	-13709
DECRE	-13710
ENCAP	-13711
OTHER	-13712
Recur	-13713
Tiles	-13714
bolic	-13715
phase	-13716
rlvls	-13717
▁DCCP	-13718
▁blen	-13719
▁deci	-13720
▁ever	-13721
Bottom	-13722
TokPtr	-13723
Visual	-13724
cirrus	-13725
egment	-13726
padlen	-13727
sysctl	-13728
undant	-13729
▁DEFER	-13730
▁along	-13731
▁comes	-13732
▁graph	-13733
▁pThis	-13734
BINDING	-13735
CHANGED	-13736
Encoded	-13737
capture	-13738
writing	-13739
▁bigger	-13740
▁queued	-13741
▁tmpbuf	-13742
▁tokens	-13743
========	-13744
FINISHED	-13745
ensitive	-13746
▁routine	-13747
▁systems	-13748
▁threads	-13749
corrupted	-13750
▁includes	-13751
▁modifier	-13752
▁subquery	-13753
▁truncate	-13754
Encryption	-13755
▁substitute	-13756
▁successfully	-13757
Im	-13758
JI	-13759
NF	-13760
]*	-13761
+4,	-13762
+8,	-13763
49,	-13764
502	-13765
80,	-13766
ANK	-13767
APE	-13768
Drm	-13769
IFS	-13770
NTP	-13771
PPC	-13772
Pan	-13773
SND	-13774
Tbl	-13775
csr	-13776
cum	-13777
fhd	-13778
mmu	-13779
sic	-13780
zaz	-13781
▁aa	-13782
▁bc	-13783
▁cq	-13784
▁lg	-13785
▁oz	-13786
-=-=	-13787
1084	-13788
DEFM	-13789
Here	-13790
IGra	-13791
IMPL	-13792
QUIR	-13793
adev	-13794
anew	-13795
ench	-13796
held	-13797
llcp	-13798
mutt	-13799
odev	-13800
qpdf	-13801
ship	-13802
uleb	-13803
urst	-13804
▁3-3	-13805
▁CFM	-13806
▁DRM	-13807
▁LZX	-13808
▁Tag	-13809
▁XWD	-13810
▁bak	-13811
▁cwd	-13812
▁dsn	-13813
▁rst	-13814
▁wps	-13815
"%%[%	-13816
ADPCM	-13817
AGENT	-13818
BRACE	-13819
CHAIN	-13820
CMDEX	-13821
Latin	-13822
]\"",	-13823
alone	-13824
asite	-13825
dwarf	-13826
inite	-13827
pread	-13828
rates	-13829
readn	-13830
sheet	-13831
trial	-13832
veral	-13833
yield	-13834
zazbz	-13835
▁Base	-13836
▁Bits	-13837
▁IDNA	-13838
▁LOOP	-13839
▁decl	-13840
▁dkim	-13841
▁emul	-13842
▁mgmt	-13843
▁nsym	-13844
▁pptr	-13845
ICIENT	-13846
SUBSTR	-13847
ccline	-13848
closed	-13849
dnskey	-13850
lfanew	-13851
player	-13852
posals	-13853
readAt	-13854
rillic	-13855
scaled	-13856
semble	-13857
▁ISCSI	-13858
▁Width	-13859
▁ended	-13860
▁fonts	-13861
▁neigh	-13862
▁octet	-13863
▁resPH	-13864
▁rpcap	-13865
▁scall	-13866
"\"%%[%	-13867
BITSPER	-13868
POLLING	-13869
REACHED	-13870
Threads	-13871
expires	-13872
keyfile	-13873
records	-13874
reshape	-13875
▁CMDOPT	-13876
▁MASKED	-13877
▁aclass	-13878
▁bittok	-13879
▁interp	-13880
▁macinf	-13881
▁pbDest	-13882
ELEMENTS	-13883
Negative	-13884
Specific	-13885
aClients	-13886
continue	-13887
counters	-13888
readonly	-13889
reshaped	-13890
vertices	-13891
▁Uunlink	-13892
AlphaType	-13893
FILLORDER	-13894
▁Optimize	-13895
▁Populate	-13896
▁ThrowPDF	-13897
▁YYCURSOR	-13898
▁evaluate	-13899
▁patterns	-13900
▁rowbytes	-13901
ALLTHROUGH	-13902
PrivateKey	-13903
RGBQuantum	-13904
additional	-13905
containers	-13906
executable	-13907
operations	-13908
▁hdrextlen	-13909
▁including	-13910
▁ourselves	-13911
▁userspace	-13912
charstrings	-13913
ingFunction	-13914
tagstackidx	-13915
▁reallocate	-13916
ProfileLevel	-13917
UpdateRegion	-13918
updateRegion	-13919
▁ReadDCMByte	-13920
▁fallthrough	-13921
▁yystacksize	-13922
BITSPERSAMPLE	-13923
GenericMethod	-13924
ReleaseObject	-13925
▁GetPixelInfo	-13926
▁decompressed	-13927
IGraphicBuffer	-13928
UndefinedValue	-13929
CreateGenerator	-13930
ProgressMonitor	-13931
bitsEncodeImage	-13932
▁SetImageOption	-13933
▁imageListLength	-13934
WE	-13935
YC	-13936
2.0	-13937
LET	-13938
MSL	-13939
SIL	-13940
[],	-13941
ffs	-13942
gso	-13943
iet	-13944
itd	-13945
pal	-13946
▁AX	-13947
▁Ac	-13948
▁HB	-13949
▁bg	-13950
COME	-13951
IPTC	-13952
MPLS	-13953
OUND	-13954
hist	-13955
ital	-13956
kill	-13957
▁257	-13958
▁GIT	-13959
▁NGX	-13960
ISDIR	-13961
SETUP	-13962
TIMER	-13963
arily	-13964
blend	-13965
lying	-13966
qtype	-13967
▁"%.*	-13968
▁pCol	-13969
▁zlog	-13970
LOOKUP	-13971
carded	-13972
finite	-13973
follow	-13974
pointf	-13975
redump	-13976
▁Final	-13977
▁GUINT	-13978
▁MOUSE	-13979
▁yield	-13980
Padding	-13981
Timeout	-13982
avigate	-13983
library	-13984
overlay	-13985
▁STRING	-13986
▁getpid	-13987
Complete	-13988
capacity	-13989
rootsize	-13990
writable	-13991
▁jiffies	-13992
▁nearest	-13993
listeners	-13994
ormatlist	-13995
terminate	-13996
▁creation	-13997
▁normally	-13998
▁template	-13999
▁recipient	-14000
reinterpret	-14001
PLANARCONFIG	-14002
▁permissions	-14003
▁terminating	-14004
pointformatlist	-14005
/0	-14006
Fn	-14007
Tq	-14008
dv	-14009
vh	-14010
0':	-14011
178	-14012
17:	-14013
3",	-14014
ACY	-14015
DNG	-14016
ECP	-14017
FFs	-14018
FLD	-14019
HEX	-14020
LES	-14021
MEW	-14022
RAT	-14023
SEG	-14024
THE	-14025
\""	-14026
_##	-14027
dmx	-14028
gem	-14029
hna	-14030
icb	-14031
inl	-14032
leb	-14033
pwr	-14034
▁8-	-14035
▁IR	-14036
▁RF	-14037
▁WF	-14038
▁`%	-14039
▁cn	-14040
▁eq	-14041
▁gx	-14042
▁lv	-14043
AEAD	-14044
EDIT	-14045
FIFO	-14046
IMAL	-14047
JSEP	-14048
Move	-14049
Pict	-14050
Puts	-14051
RECV	-14052
Rank	-14053
Regs	-14054
Seed	-14055
_256	-14056
adts	-14057
best	-14058
colr	-14059
cout	-14060
dctx	-14061
dies	-14062
dval	-14063
eval	-14064
fmod	-14065
lomb	-14066
mbly	-14067
role	-14068
secs	-14069
tcpd	-14070
▁!!!	-14071
▁???	-14072
▁FUT	-14073
▁JCS	-14074
▁Map	-14075
▁OID	-14076
▁SGI	-14077
▁avc	-14078
▁gap	-14079
▁iph	-14080
▁uac	-14081
Boxes	-14082
QUIRK	-14083
ToUTF	-14084
Where	-14085
deblk	-14086
dicom	-14087
ively	-14088
mixer	-14089
slate	-14090
stage	-14091
vaddr	-14092
▁Auth	-14093
▁Char	-14094
▁HAND	-14095
▁IHDR	-14096
▁Main	-14097
▁RGBA	-14098
▁TEST	-14099
▁WTAP	-14100
▁bufs	-14101
▁rgba	-14102
▁upon	-14103
ROUTER	-14104
SYMBOL	-14105
Stride	-14106
TERMIN	-14107
Traits	-14108
antial	-14109
avilib	-14110
icular	-14111
leaved	-14112
reauth	-14113
sembly	-14114
strasm	-14115
submit	-14116
userid	-14117
▁CLOSE	-14118
▁EMPTY	-14119
▁ahead	-14120
▁brush	-14121
▁creds	-14122
▁tcomp	-14123
CONSTRU	-14124
Degrees	-14125
Imaging	-14126
LOGICAL	-14127
Texture	-14128
VISIBLE	-14129
YYLIMIT	-14130
actions	-14131
apshots	-14132
bitrate	-14133
blocked	-14134
limited	-14135
montage	-14136
origPtr	-14137
outfile	-14138
syscall	-14139
uintptr	-14140
uppress	-14141
▁DOUBLE	-14142
▁YYFILL	-14143
▁digits	-14144
▁nibble	-14145
▁strasm	-14146
▁tunnel	-14147
▁ulimit	-14148
Allocate	-14149
Composit	-14150
Distance	-14151
Endpoint	-14152
NOTQUIET	-14153
NotEqual	-14154
SETCHECK	-14155
Throttle	-14156
decoding	-14157
ingPoint	-14158
precated	-14159
▁Initial	-14160
▁adapter	-14161
▁bitmask	-14162
▁minnext	-14163
ImageSize	-14164
copyright	-14165
serialize	-14166
▁lifetime	-14167
▁nlmsghdr	-14168
▁refcount	-14169
Decompress	-14170
exceptions	-14171
heightexpn	-14172
ingerprint	-14173
protection	-14174
▁succeeded	-14175
▁transpose	-14176
▁usbvision	-14177
Association	-14178
DoubleValue	-14179
LocationSet	-14180
▁fileHeader	-14181
▁particular	-14182
▁persistent	-14183
▁transposed	-14184
▁SetGeometry	-14185
▁mStreamInfo	-14186
NoCompression	-14187
OnigCodePoint	-14188
authorization	-14189
▁EnableWindow	-14190
▁littleEndian	-14191
LZWEncodeImage	-14192
getHermesValue	-14193
▁DuplicateBlob	-14194
▁TrueColorType	-14195
ZLIBEncodeImage	-14196
▁GetQuantumRange	-14197
EF	-14198
QA	-14199
50:	-14200
64"	-14201
DRI	-14202
OSE	-14203
bpf	-14204
cam	-14205
▁cu	-14206
▁hp	-14207
▁hv	-14208
▁ix	-14209
Site	-14210
UUID	-14211
▁ENG	-14212
▁GEN	-14213
▁pte	-14214
▁slc	-14215
▁vmx	-14216
ADOBE	-14217
KNOWN	-14218
anned	-14219
fully	-14220
pThis	-14221
sched	-14222
umidi	-14223
▁Fall	-14224
▁PATH	-14225
▁mono	-14226
▁pNew	-14227
CANCEL	-14228
EXTHDR	-14229
IssRGB	-14230
nlimbs	-14231
pirlvl	-14232
states	-14233
▁ALIGN	-14234
▁Begin	-14235
▁NETIF	-14236
▁admin	-14237
▁gsize	-14238
▁hello	-14239
▁hlist	-14240
▁loops	-14241
▁spans	-14242
EXECUTE	-14243
GENERIC	-14244
Objects	-14245
UNAVAIL	-14246
batches	-14247
cryptfs	-14248
▁ENGINE	-14249
▁engine	-14250
operator	-14251
▁Segment	-14252
▁clients	-14253
▁getting	-14254
▁newsize	-14255
CONNECTED	-14256
fragments	-14257
▁ecryptfs	-14258
▁increase	-14259
GetVirtual	-14260
getCurrent	-14261
▁RPMVERIFY	-14262
▁endpoints	-14263
SignalledError	-14264
▁QPDFTokenizer	-14265
GetQuantumRange	-14266
IssRGBCompatible	-14267
▁SizeOfDimension	-14268
,=	-14269
4"	-14270
8>	-14271
Ap	-14272
HC	-14273
422	-14274
4_1	-14275
512	-14276
577	-14277
Aff	-14278
DUP	-14279
FRM	-14280
GRP	-14281
GSO	-14282
OCT	-14283
SCH	-14284
XIf	-14285
YCC	-14286
_2:	-14287
dch	-14288
dur	-14289
jpc	-14290
mtx	-14291
nos	-14292
pwp	-14293
xxx	-14294
▁HF	-14295
▁ua	-14296
%08"	-14297
,"%%	-14298
BIDI	-14299
Face	-14300
ITAL	-14301
OFFS	-14302
PENT	-14303
Quic	-14304
curv	-14305
ehdr	-14306
erce	-14307
kidx	-14308
mlen	-14309
pbuf	-14310
trex	-14311
▁%04	-14312
▁'!'	-14313
▁AND	-14314
▁ARG	-14315
▁FAR	-14316
▁Hel	-14317
▁ITD	-14318
▁OBJ	-14319
▁Raw	-14320
▁dyn	-14321
▁fcn	-14322
▁mon	-14323
▁plg	-14324
▁sin	-14325
▁trx	-14326
CFUNC	-14327
DESCR	-14328
DTYPE	-14329
ITYPE	-14330
ORITY	-14331
Ratio	-14332
SAKMP	-14333
cblks	-14334
envid	-14335
fiber	-14336
linen	-14337
ofmem	-14338
ppoll	-14339
renew	-14340
tchar	-14341
unkbd	-14342
vered	-14343
vhost	-14344
views	-14345
wchar	-14346
zstrm	-14347
▁Back	-14348
▁Step	-14349
▁TGAR	-14350
▁dirs	-14351
▁doff	-14352
▁epos	-14353
▁filp	-14354
▁kssl	-14355
▁plus	-14356
Chrome	-14357
HasKey	-14358
Hidden	-14359
JPEGLS	-14360
NewOwn	-14361
OnThis	-14362
SEVENT	-14363
TmpVal	-14364
ToRadi	-14365
UnLock	-14366
ataset	-14367
chosen	-14368
cmptno	-14369
coeffs	-14370
deploy	-14371
htable	-14372
nFlags	-14373
▁Basic	-14374
▁Label	-14375
▁Local	-14376
▁cipop	-14377
▁lists	-14378
▁login	-14379
▁logit	-14380
▁opdef	-14381
▁sixel	-14382
▁yyget	-14383
ConnVal	-14384
DISCARD	-14385
Exceeds	-14386
ISOLATE	-14387
PRESENT	-14388
STRINGL	-14389
Written	-14390
emalloc	-14391
hausted	-14392
pInName	-14393
parsing	-14394
patLoop	-14395
▁ENOENT	-14396
▁HEADER	-14397
▁ISAKMP	-14398
▁PACKET	-14399
▁cmptno	-14400
▁msghdr	-14401
▁reload	-14402
▁resume	-14403
▁tevent	-14404
▁worker	-14405
▁yychar	-14406
FileSize	-14407
badflags	-14408
mChannel	-14409
▁ADVANCE	-14410
▁CHECKCP	-14411
▁newline	-14412
▁passing	-14413
▁requeue	-14414
▁rewrite	-14415
▁xstrdup	-14416
OnThisRow	-14417
ProfileAt	-14418
Resources	-14419
ToRadians	-14420
antialias	-14421
callbacks	-14422
headerlen	-14423
imageType	-14424
isflagset	-14425
▁Register	-14426
▁pContext	-14427
NumGetById	-14428
ceildivpow	-14429
httpsocket	-14430
references	-14431
▁Composite	-14432
▁PointInfo	-14433
▁completed	-14434
▁flushline	-14435
▁intensity	-14436
▁multipart	-14437
▁rectangle	-14438
▁subformat	-14439
BilevelType	-14440
InputBuffer	-14441
constraints	-14442
sampleCount	-14443
▁readVector	-14444
▁structures	-14445
AlphaChannel	-14446
BuildConnVal	-14447
ExceedsLimit	-14448
GetArguments	-14449
IsStringTrue	-14450
▁potentially	-14451
MainProfileAt	-14452
▁chromaticity	-14453
UnableToCreate	-14454
▁InsertComplex	-14455
▁fragheaderlen	-14456
▁ReadBlobStream	-14457
>>>>>>>>>>>>>>>>	-14458
DegreesToRadians	-14459
HighProfileLevel	-14460
▁ConnectionEvent	-14461
HL	-14462
Pk	-14463
^2	-14464
bx	-14465
ea	-14466
ou	-14467
xi	-14468
498	-14469
Alt	-14470
MIB	-14471
RTR	-14472
USR	-14473
maj	-14474
▁%#	-14475
▁Sw	-14476
▁rw	-14477
110_	-14478
AMIC	-14479
CMSG	-14480
Join	-14481
Mark	-14482
UGIN	-14483
aren	-14484
fqan	-14485
iovs	-14486
urls	-14487
▁24:	-14488
▁Non	-14489
▁occ	-14490
Canon	-14491
EXTER	-14492
otion	-14493
rxbuf	-14494
▁Init	-14495
▁SIOC	-14496
▁race	-14497
▁tipc	-14498
▁undo	-14499
▁your	-14500
TICKET	-14501
namesz	-14502
▁avahi	-14503
▁blink	-14504
▁front	-14505
▁tsize	-14506
Mapping	-14507
entical	-14508
filepos	-14509
install	-14510
patched	-14511
rootdir	-14512
scatter	-14513
▁across	-14514
▁logged	-14515
▁middle	-14516
▁setuid	-14517
▁vmcast	-14518
DECREASE	-14519
elerated	-14520
▁trailer	-14521
▁various	-14522
▁xmalloc	-14523
FileSpace	-14524
▁processes	-14525
▁completely	-14526
interruptible	-14527
▁implementation	-14528
#%	-14529
:'	-14530
zd	-14531
,",	-14532
,12	-14533
/1.	-14534
13,	-14535
30:	-14536
46,	-14537
575	-14538
ALK	-14539
CBC	-14540
CLR	-14541
Clr	-14542
EMU	-14543
ENU	-14544
ERE	-14545
IFL	-14546
INI	-14547
Lab	-14548
Ren	-14549
Sli	-14550
YES	-14551
adv	-14552
deb	-14553
dsp	-14554
exr	-14555
lut	-14556
tap	-14557
ues	-14558
usg	-14559
vme	-14560
▁BD	-14561
▁GR	-14562
▁RX	-14563
▁ba	-14564
▁bk	-14565
▁pv	-14566
▁sq	-14567
▁wr	-14568
ARGE	-14569
Boot	-14570
Clip	-14571
DTLS	-14572
GOST	-14573
GROW	-14574
IDrm	-14575
IEND	-14576
Inch	-14577
JBIG	-14578
LASS	-14579
PFMT	-14580
Pipe	-14581
REND	-14582
RGBO	-14583
ROLL	-14584
SALT	-14585
SHUT	-14586
caNv	-14587
gnum	-14588
grub	-14589
pkto	-14590
psrc	-14591
rdev	-14592
rmap	-14593
tsec	-14594
uref	-14595
▁"-"	-14596
▁ARY	-14597
▁CTC	-14598
▁Dcm	-14599
▁Enc	-14600
▁FAT	-14601
▁NTP	-14602
▁emp	-14603
▁ist	-14604
▁shm	-14605
BLANK	-14606
CONSO	-14607
DELTA	-14608
ENTIC	-14609
FLUSH	-14610
Inner	-14611
Logon	-14612
RESOL	-14613
agios	-14614
bochs	-14615
cells	-14616
notif	-14617
pared	-14618
pathc	-14619
picon	-14620
readD	-14621
slirp	-14622
▁EXIM	-14623
▁Each	-14624
▁Full	-14625
▁Mono	-14626
▁WLOG	-14627
▁aBuf	-14628
▁aren	-14629
▁bdrv	-14630
▁dots	-14631
▁repr	-14632
▁rtnl	-14633
▁xmlX	-14634
9660->	-14635
Attach	-14636
ENTITY	-14637
PRAGMA	-14638
Player	-14639
Pragma	-14640
UEVENT	-14641
behind	-14642
cgroup	-14643
ervice	-14644
fwrite	-14645
gather	-14646
iguous	-14647
olving	-14648
radius	-14649
▁WHERE	-14650
▁fault	-14651
▁fputs	-14652
▁integ	-14653
▁nbits	-14654
▁sSort	-14655
AMETERS	-14656
BDECODE	-14657
Require	-14658
Resolve	-14659
Subtype	-14660
Uniform	-14661
erminal	-14662
getChar	-14663
getuint	-14664
tlength	-14665
tstring	-14666
valbool	-14667
▁Always	-14668
▁Endian	-14669
▁LogPNG	-14670
▁Report	-14671
▁button	-14672
▁colour	-14673
▁ippAdd	-14674
▁legacy	-14675
▁plgctx	-14676
▁sarray	-14677
▁tLayer	-14678
▁ushort	-14679
FieldSet	-14680
FileType	-14681
JNGImage	-14682
MetaData	-14683
enhanced	-14684
material	-14685
polation	-14686
yyaccept	-14687
▁Attempt	-14688
▁PNGType	-14689
▁authlen	-14690
▁newserv	-14691
▁nextSym	-14692
▁refresh	-14693
▁related	-14694
completed	-14695
dynstrcat	-14696
mandatory	-14697
processor	-14698
▁GETSHORT	-14699
▁SEQUENCE	-14700
▁archtype	-14701
▁blocking	-14702
▁byteSwap	-14703
▁listargs	-14704
▁material	-14705
▁optimize	-14706
CAPABILITY	-14707
▁VALUETYPE	-14708
▁bitstream	-14709
▁chunksize	-14710
▁dcmEnable	-14711
DecodeImage	-14712
ImageReturn	-14713
TORPROTOCOL	-14714
▁overridden	-14715
▁LogPNGChunk	-14716
DCMStreamInfo	-14717
▁SetImageInfo	-14718
▁SparseTensor	-14719
▁MaxTextExtent	-14720
HA	-14721
MK	-14722
MY	-14723
YS	-14724
oo	-14725
qb	-14726
19,	-14727
40:	-14728
KEX	-14729
SRS	-14730
ape	-14731
ddr	-14732
dls	-14733
mdl	-14734
mpo	-14735
pbi	-14736
rds	-14737
▁38	-14738
▁TM	-14739
▁wd	-14740
1234	-14741
Form	-14742
algo	-14743
bNum	-14744
escu	-14745
mOwn	-14746
mtab	-14747
oned	-14748
xFFF	-14749
▁"\\	-14750
▁'|'	-14751
▁CAN	-14752
▁Got	-14753
▁TAB	-14754
▁Tri	-14755
▁saw	-14756
RETRY	-14757
maged	-14758
sense	-14759
seqtt	-14760
sleep	-14761
▁PRIV	-14762
▁sequ	-14763
▁udev	-14764
HEIGHT	-14765
SERIAL	-14766
UShort	-14767
around	-14768
edByUs	-14769
ertain	-14770
flxdec	-14771
namlen	-14772
planar	-14773
raster	-14774
▁NOENV	-14775
▁PLIST	-14776
▁posix	-14777
CString	-14778
Logical	-14779
chunkId	-14780
ciphers	-14781
mpolicy	-14782
regprog	-14783
shuffle	-14784
trackID	-14785
▁chance	-14786
▁hwaddr	-14787
▁scoped	-14788
Original	-14789
Platform	-14790
declined	-14791
fallback	-14792
messages	-14793
▁Section	-14794
▁appears	-14795
▁compare	-14796
▁hismode	-14797
CONSTTIME	-14798
ObjectPtr	-14799
Recursive	-14800
SplayTree	-14801
▁appended	-14802
▁rfbClose	-14803
▁snapshot	-14804
▁stripped	-14805
▁terminal	-14806
▁verified	-14807
anityCheck	-14808
mOwnedByUs	-14809
partitions	-14810
▁important	-14811
▁responses	-14812
▁xmlNodePtr	-14813
PageGeometry	-14814
▁intermediate	-14815
MR	-14816
RV	-14817
vf	-14818
**'	-14819
+10	-14820
119	-14821
18:	-14822
566	-14823
=1,	-14824
>>4	-14825
AUX	-14826
DSN	-14827
Des	-14828
Dup	-14829
Eng	-14830
IPv	-14831
MTU	-14832
PIC	-14833
PSS	-14834
Png	-14835
SHT	-14836
ccm	-14837
cpt	-14838
dom	-14839
fpu	-14840
hea	-14841
kPS	-14842
lsi	-14843
nfa	-14844
pgd	-14845
sol	-14846
tld	-14847
▁47	-14848
▁9:	-14849
▁DN	-14850
▁SS	-14851
▁UR	-14852
▁[]	-14853
▁ae	-14854
▁pq	-14855
▁vb	-14856
CRTR	-14857
HEVC	-14858
MULT	-14859
Rcon	-14860
SHAD	-14861
UNDO	-14862
[0]+	-14863
cstr	-14864
devc	-14865
lood	-14866
outl	-14867
qdev	-14868
rtcp	-14869
sgnd	-14870
strd	-14871
trun	-14872
xfff	-14873
zTXt	-14874
▁"*"	-14875
▁'6'	-14876
▁ACK	-14877
▁ELF	-14878
▁HDB	-14879
▁MET	-14880
▁dep	-14881
▁lbs	-14882
▁lsi	-14883
▁nxt	-14884
▁pmc	-14885
▁psg	-14886
▁ucp	-14887
ASPEC	-14888
BNAIL	-14889
CLOCK	-14890
DRIVE	-14891
ETYPE	-14892
FILER	-14893
FIXUP	-14894
FORCE	-14895
Nodes	-14896
SONIC	-14897
ToGID	-14898
alnum	-14899
arity	-14900
biClr	-14901
click	-14902
edata	-14903
ellow	-14904
lyrno	-14905
pphar	-14906
sljit	-14907
templ	-14908
truth	-14909
vsize	-14910
zfile	-14911
▁Acpi	-14912
▁Crop	-14913
▁INFO	-14914
▁Keep	-14915
▁Path	-14916
▁['='	-14917
▁asdl	-14918
▁cval	-14919
▁fits	-14920
▁kMax	-14921
▁lazy	-14922
▁pret	-14923
▁quir	-14924
▁rsvg	-14925
▁tRNS	-14926
▁topt	-14927
▁xmin	-14928
,65536	-14929
ADCAST	-14930
CBLOCK	-14931
DELETE	-14932
Letter	-14933
OFTrue	-14934
OrZero	-14935
PENTAX	-14936
RANDOM	-14937
SECURE	-14938
Strong	-14939
ThisNS	-14940
aptive	-14941
cmdmod	-14942
divpow	-14943
dstadr	-14944
matype	-14945
maxval	-14946
minlen	-14947
nValue	-14948
period	-14949
starts	-14950
▁Const	-14951
▁SCLog	-14952
▁pdata	-14953
▁rbufp	-14954
▁unset	-14955
CAPTURE	-14956
Compute	-14957
ENCODED	-14958
ERRCODE	-14959
GBitmap	-14960
TIFFGet	-14961
VRGener	-14962
XWindow	-14963
anydata	-14964
depends	-14965
drvdata	-14966
ecpoint	-14967
factors	-14968
getinfo	-14969
keydata	-14970
newline	-14971
olation	-14972
resence	-14973
rewrite	-14974
rfbSend	-14975
▁Config	-14976
▁MAKEID	-14977
▁center	-14978
▁choice	-14979
▁floats	-14980
▁greedy	-14981
▁huffRD	-14982
▁libraw	-14983
▁npages	-14984
▁outStr	-14985
▁regard	-14986
▁reqctx	-14987
CharType	-14988
DISABLED	-14989
DateTime	-14990
Debugger	-14991
Entities	-14992
FILENAME	-14993
Registry	-14994
argslist	-14995
cmpttype	-14996
newImage	-14997
splitoff	-14998
trystack	-14999
▁actions	-15000
▁desired	-15001
▁dispose	-15002
▁pmcraid	-15003
▁protect	-15004
▁reports	-15005
▁swizzle	-15006
Available	-15007
BoolValue	-15008
PlayState	-15009
PortIndex	-15010
canonical	-15011
landscape	-15012
tilewidth	-15013
timescale	-15014
▁CALLBACK	-15015
▁Received	-15016
▁errorbuf	-15017
▁indirect	-15018
▁removing	-15019
▁semantic	-15020
▁yyerrlab	-15021
FileFormat	-15022
VPNUNICAST	-15023
expiration	-15024
▁execution	-15025
▁therefore	-15026
GetPrevious	-15027
RemoveFirst	-15028
clientstate	-15029
floordivpow	-15030
▁PixelTrait	-15031
▁SCLogDebug	-15032
▁afterwards	-15033
TIFFFieldSet	-15034
VPNMULTICAST	-15035
VRGeneration	-15036
▁clientstate	-15037
PushLongPixel	-15038
▁certificates	-15039
AnimationState	-15040
InchResolution	-15041
NegativeOrZero	-15042
WriteBlobFloat	-15043
VPNUNIMULTICAST	-15044
QPDFObjectHandle	-15045
>,	-15046
LP	-15047
MV	-15048
QT	-15049
00]	-15050
106	-15051
18,	-15052
534	-15053
848	-15054
CLU	-15055
Lim	-15056
dip	-15057
▁0-	-15058
▁EQ	-15059
Cbor	-15060
Gest	-15061
MAPI	-15062
Same	-15063
Task	-15064
[17]	-15065
[512	-15066
gers	-15067
loff	-15068
misc	-15069
opid	-15070
poch	-15071
rlim	-15072
sids	-15073
▁Doc	-15074
▁Net	-15075
▁bat	-15076
▁msh	-15077
▁who	-15078
▁xdr	-15079
GUEST	-15080
Mutex	-15081
TYPES	-15082
atime	-15083
echat	-15084
imple	-15085
marsh	-15086
mcast	-15087
plist	-15088
▁hope	-15089
cdtext	-15090
chrono	-15091
expire	-15092
▁Split	-15093
▁beach	-15094
▁uaddr	-15095
Decrypt	-15096
Gesture	-15097
Picture	-15098
central	-15099
gdImage	-15100
istered	-15101
movescu	-15102
nodeTab	-15103
▁fwrite	-15104
▁marked	-15105
▁shapes	-15106
▁xmlBuf	-15107
Computed	-15108
andidate	-15109
brackets	-15110
equality	-15111
periment	-15112
▁PString	-15113
▁Perform	-15114
▁consume	-15115
AUTHENTIC	-15116
necessary	-15117
▁rejected	-15118
▁retrieve	-15119
Executable	-15120
▁libcerror	-15121
▁outputlen	-15122
▁triggered	-15123
▁impossible	-15124
▁management	-15125
▁superblock	-15126
movescuLogger	-15127
FG	-15128
XM	-15129
[:	-15130
km	-15131
!=3	-15132
+2,	-15133
033	-15134
12_	-15135
23,	-15136
419	-15137
700	-15138
CRN	-15139
Fil	-15140
GIF	-15141
Ifd	-15142
MDS	-15143
Mul	-15144
POW	-15145
RAD	-15146
Sos	-15147
Tcp	-15148
XFS	-15149
bot	-15150
dtd	-15151
efe	-15152
emo	-15153
kex	-15154
mtf	-15155
rdp	-15156
tpg	-15157
▁9,	-15158
▁96	-15159
▁RW	-15160
▁od	-15161
▁tc	-15162
▁ud	-15163
▁vC	-15164
128_	-15165
AILQ	-15166
BBBB	-15167
BUTT	-15168
CLAS	-15169
INCT	-15170
MATR	-15171
PREV	-15172
PROM	-15173
Roll	-15174
STRO	-15175
SVGD	-15176
THIS	-15177
[3]=	-15178
acct	-15179
aple	-15180
bkgd	-15181
corr	-15182
curY	-15183
dead	-15184
ibuf	-15185
idat	-15186
idxs	-15187
jobj	-15188
prof	-15189
ptmp	-15190
sipx	-15191
skey	-15192
undo	-15193
vmcs	-15194
▁"</	-15195
▁/**	-15196
▁HCF	-15197
▁LDP	-15198
▁REX	-15199
▁RGW	-15200
▁UID	-15201
▁clk	-15202
▁cts	-15203
▁osp	-15204
APLOG	-15205
MANAG	-15206
MOVED	-15207
PROBE	-15208
SENDB	-15209
added	-15210
ether	-15211
fgets	-15212
hFile	-15213
klass	-15214
ubyte	-15215
umask	-15216
whole	-15217
▁Blob	-15218
▁Exim	-15219
▁abuf	-15220
▁disp	-15221
▁fenc	-15222
▁offs	-15223
▁pRec	-15224
▁stmt	-15225
----*/	-15226
BUTTON	-15227
INSUFF	-15228
Shared	-15229
TSRMLS	-15230
beacon	-15231
cflags	-15232
equals	-15233
getval	-15234
libpng	-15235
memset	-15236
perror	-15237
▁agent	-15238
▁annot	-15239
▁csync	-15240
▁maker	-15241
▁relay	-15242
▁trail	-15243
BasicIo	-15244
DYNAMIC	-15245
Library	-15246
ORDERED	-15247
RECTION	-15248
RUNNING	-15249
WidthOr	-15250
caption	-15251
descent	-15252
envsize	-15253
inality	-15254
iswordp	-15255
mutable	-15256
nesting	-15257
openssl	-15258
pseqval	-15259
reached	-15260
subexpr	-15261
▁MINBPC	-15262
▁Splash	-15263
▁extend	-15264
▁figure	-15265
▁filled	-15266
▁msgbuf	-15267
▁nlines	-15268
▁qtsize	-15269
▁ranges	-15270
▁strong	-15271
▁uspoof	-15272
Dispatch	-15273
ReadUInt	-15274
linesize	-15275
parallel	-15276
readByte	-15277
selFlags	-15278
xmlXPath	-15279
▁DISABLE	-15280
▁FORWARD	-15281
▁OFFalse	-15282
▁meaning	-15283
▁nLength	-15284
▁outByte	-15285
▁outputs	-15286
▁printed	-15287
▁regnext	-15288
▁several	-15289
ARAMETERS	-15290
BROADCAST	-15291
BadMethod	-15292
INVISIBLE	-15293
MagickMin	-15294
SEPARATOR	-15295
configure	-15296
effective	-15297
lications	-15298
numpasses	-15299
quantized	-15300
ratelimit	-15301
▁sAggInfo	-15302
CheckBytes	-15303
Extensions	-15304
Instrument	-15305
SVGDensity	-15306
dictionary	-15307
▁logprintf	-15308
▁submodule	-15309
CompositeOp	-15310
Mapdownload	-15311
▁cacheEntry	-15312
▁disconnect	-15313
▁normalized	-15314
▁yyoverflow	-15315
INSUFFICIENT	-15316
SAMPLEFORMAT	-15317
▁gopherState	-15318
BadMethodCall	-15319
ChannelTraits	-15320
ColormapValue	-15321
WidthOrHeight	-15322
▁ReadProperty	-15323
▁cupsFilePuts	-15324
▁rfbClientLog	-15325
▁verification	-15326
▁SetImageProfile	-15327
"]	-15328
.8	-15329
137	-15330
35,	-15331
384	-15332
rip	-15333
▁35	-15334
▁5.	-15335
▁HZ	-15336
1018	-15337
SNAP	-15338
eper	-15339
gith	-15340
hctx	-15341
kbuf	-15342
ntlm	-15343
roke	-15344
rols	-15345
▁EAP	-15346
▁LSI	-15347
▁SRC	-15348
▁TEE	-15349
▁ctr	-15350
▁hop	-15351
▁mpt	-15352
▁pkg	-15353
csize	-15354
spath	-15355
wdata	-15356
▁LBER	-15357
▁SNMP	-15358
▁bprm	-15359
▁dead	-15360
▁easi	-15361
▁foot	-15362
▁grab	-15363
▁hand	-15364
PARENT	-15365
Unpack	-15366
gether	-15367
github	-15368
inData	-15369
▁instr	-15370
▁minus	-15371
Cleanup	-15372
UNSPECI	-15373
chassis	-15374
recvmsg	-15375
serting	-15376
▁DECODE	-15377
▁TLSEXT	-15378
▁locale	-15379
CHECKSUM	-15380
metastsc	-15381
offsetof	-15382
perstrip	-15383
question	-15384
▁certain	-15385
▁ereport	-15386
▁finally	-15387
▁modulus	-15388
▁testing	-15389
▁Document	-15390
▁Possible	-15391
▁Protocol	-15392
▁bytesPer	-15393
▁combined	-15394
▁coredump	-15395
▁iconInfo	-15396
▁reported	-15397
▁supposed	-15398
BufferDone	-15399
▁optimized	-15400
▁reduction	-15401
▁symmetric	-15402
freedesktop	-15403
▁boundaries	-15404
▁decryption	-15405
▁namespaces	-15406
TIMESTAMPING	-15407
▁initialization	-15408
▁rfbCloseClient	-15409
:/	-15410
FH	-15411
Go	-15412
MG	-15413
MH	-15414
yz	-15415
&=0	-15416
,32	-15417
6",	-15418
==2	-15419
Adv	-15420
DLE	-15421
Dbg	-15422
EXt	-15423
FOC	-15424
GPF	-15425
HML	-15426
ROP	-15427
Sha	-15428
Std	-15429
Sum	-15430
UIT	-15431
[^\	-15432
cbc	-15433
esp	-15434
hbs	-15435
hdu	-15436
kle	-15437
mgl	-15438
pBt	-15439
rbg	-15440
rtt	-15441
txq	-15442
vie	-15443
▁"&	-15444
▁34	-15445
▁Ca	-15446
▁xz	-15447
2.0*	-15448
4127	-15449
60.0	-15450
=255	-15451
CEPT	-15452
Card	-15453
Emph	-15454
HINT	-15455
Icon	-15456
LINT	-15457
MONO	-15458
PECT	-15459
Pred	-15460
RAND	-15461
REMO	-15462
SELF	-15463
SRGB	-15464
beta	-15465
coff	-15466
defs	-15467
ihdr	-15468
logs	-15469
oFFs	-15470
ostr	-15471
past	-15472
pdfa	-15473
piro	-15474
ptag	-15475
reas	-15476
sLSB	-15477
sMSB	-15478
urbs	-15479
vptr	-15480
▁"//	-15481
▁BBB	-15482
▁DIB	-15483
▁PSK	-15484
▁PUN	-15485
▁SOL	-15486
▁SUN	-15487
▁TIO	-15488
▁ifr	-15489
▁rdf	-15490
▁sat	-15491
1000_	-15492
BOARD	-15493
CPsTo	-15494
InThe	-15495
LeftX	-15496
Merge	-15497
STROY	-15498
anSof	-15499
charp	-15500
cheap	-15501
coord	-15502
fputc	-15503
fsuid	-15504
gspca	-15505
inker	-15506
lipse	-15507
octet	-15508
publi	-15509
rdesc	-15510
yphen	-15511
▁AEAD	-15512
▁Calc	-15513
▁Cvar	-15514
▁Link	-15515
▁META	-15516
▁SEEN	-15517
▁UNIX	-15518
▁cdev	-15519
▁cmod	-15520
▁cols	-15521
▁cons	-15522
▁newp	-15523
▁peak	-15524
▁qalc	-15525
▁qcow	-15526
Anchor	-15527
CHROME	-15528
Detect	-15529
Engine	-15530
IEEEFP	-15531
LEGACY	-15532
Planes	-15533
REGEXP	-15534
XDIGIT	-15535
abling	-15536
cmdpos	-15537
ecrypt	-15538
enames	-15539
entest	-15540
folder	-15541
iTable	-15542
icbTag	-15543
pector	-15544
yychar	-15545
▁CINFO	-15546
▁ERRNO	-15547
▁Media	-15548
▁POSIX	-15549
▁RList	-15550
▁Weird	-15551
▁YCbCr	-15552
▁built	-15553
▁cupsd	-15554
▁descr	-15555
▁dirty	-15556
▁dtype	-15557
▁email	-15558
▁enter	-15559
▁owned	-15560
▁pfrag	-15561
▁saddr	-15562
▁sldns	-15563
▁weird	-15564
FORWARD	-15565
GLOBALS	-15566
HorzRes	-15567
JOURNAL	-15568
ReadMAT	-15569
STORAGE	-15570
THREADS	-15571
VertRes	-15572
anitize	-15573
appends	-15574
dataset	-15575
regsave	-15576
spacing	-15577
▁EAGAIN	-15578
▁IObuff	-15579
▁RBREAK	-15580
▁VOLCMD	-15581
▁XCLASS	-15582
▁alloca	-15583
▁badcmd	-15584
▁descsz	-15585
▁glyphs	-15586
▁prompt	-15587
▁resent	-15588
▁useful	-15589
ClampYCC	-15590
INDIRECT	-15591
NameFlag	-15592
PRIORITY	-15593
PerFrame	-15594
REGINPUT	-15595
Resolver	-15596
Template	-15597
TextChat	-15598
TopBoxes	-15599
callinfo	-15600
cropping	-15601
nCompInd	-15602
recursed	-15603
referral	-15604
referred	-15605
referrer	-15606
tempfile	-15607
▁CString	-15608
▁YYEMPTY	-15609
▁oldcode	-15610
▁omitted	-15611
▁recover	-15612
▁visited	-15613
▁wrapper	-15614
ByteCount	-15615
FRAGMENTS	-15616
NewTarget	-15617
PutNewOwn	-15618
Separator	-15619
Threshold	-15620
XWDheader	-15621
blacklist	-15622
piroCPsTo	-15623
▁aborting	-15624
▁readline	-15625
▁xmlParse	-15626
CallDirect	-15627
dataLength	-15628
errorWrite	-15629
identities	-15630
infilesize	-15631
nNextOrder	-15632
nendstream	-15633
perimental	-15634
simplicity	-15635
▁LSBEndian	-15636
▁Photoshop	-15637
▁backslash	-15638
▁deltanext	-15639
▁orderList	-15640
▁permitted	-15641
InTheMatrix	-15642
InputLength	-15643
ReadBlobXXX	-15644
SAMPLEVALUE	-15645
SanityCheck	-15646
WritePixels	-15647
▁CalcMinMax	-15648
▁datastream	-15649
▁suggestion	-15650
ECPARAMETERS	-15651
ReadMATImage	-15652
startAddress	-15653
▁RotateImage	-15654
▁ciphersuite	-15655
▁numChannels	-15656
ProcessClient	-15657
SyncCacheView	-15658
▁automatically	-15659
encodeBoolValue	-15660
piroCPsToBezier	-15661
GetImageArtifact	-15662
▁FriBidiCharType	-15663
La	-15664
NI	-15665
zx	-15666
*",	-15667
ENE	-15668
RFB	-15669
SPC	-15670
_24	-15671
▁+1	-15672
▁2^	-15673
▁Ai	-15674
▁WM	-15675
▁hc	-15676
CONS	-15677
INUX	-15678
lest	-15679
prph	-15680
sits	-15681
vely	-15682
xslt	-15683
▁***	-15684
▁20,	-15685
▁500	-15686
▁802	-15687
▁Bit	-15688
▁VIM	-15689
▁bio	-15690
▁foc	-15691
▁ucs	-15692
▁vpx	-15693
Fetch	-15694
Mouse	-15695
admin	-15696
brush	-15697
chart	-15698
metic	-15699
trust	-15700
▁maps	-15701
▁spos	-15702
EFFECT	-15703
PLUGIN	-15704
caught	-15705
padded	-15706
▁BTRFS	-15707
▁ioctl	-15708
▁raise	-15709
▁slots	-15710
▁whose	-15711
Checked	-15712
DPRINTF	-15713
PARTIAL	-15714
biWidth	-15715
inverse	-15716
perture	-15717
rection	-15718
▁HANDLE	-15719
ASSIGNED	-15720
▁Element	-15721
▁MYSQLND	-15722
▁neither	-15723
Challenge	-15724
▁assigned	-15725
▁brackets	-15726
▁external	-15727
▁fallback	-15728
▁lineDash	-15729
▁positive	-15730
▁savedCTM	-15731
EventError	-15732
ringbuffer	-15733
Application	-15734
dereference	-15735
▁submission	-15736
*,	-15737
:]	-15738
Jp	-15739
Mu	-15740
XC	-15741
-4,	-15742
.15	-15743
20,	-15744
21,	-15745
CRL	-15746
Cal	-15747
EMO	-15748
EOL	-15749
MIX	-15750
PPP	-15751
SCF	-15752
Tim	-15753
Unc	-15754
VFS	-15755
\":	-15756
_1,	-15757
_2,	-15758
▁	-15759
e	-15760
t	-15761
i	-15762
r	-15763
a	-15764
s	-15765
n	-15766
o	-15767
_	-15768
c	-15769
l	-15770
d	-15771
p	-15772
f	-15773
m	-15774
u	-15775
g	-15776
=	-15777
,	-15778
h	-15779
b	-15780
-	-15781
y	-15782
E	-15783
*	-15784
>	-15785
S	-15786
T	-15787
L	-15788
x	-15789
R	-15790
I	-15791
k	-15792
v	-15793
A	-15794
N	-15795
.	-15796
C	-15797
"	-15798
0	-15799
O	-15800
P	-15801
/	-15802
M	-15803
w	-15804
F	-15805
D	-15806
1	-15807
U	-15808
&	-15809
:	-15810
B	-15811
+	-15812
G	-15813
2	-15814
z	-15815
'	-15816
[	-15817
]	-15818
<	-15819
!	-15820
3	-15821
H	-15822
Y	-15823
4	-15824
q	-15825
V	-15826
6	-15827
|	-15828
X	-15829
%	-15830
W	-15831
j	-15832
\	-15833
K	-15834
8	-15835
5	-15836
#	-15837
Q	-15838
7	-15839
9	-15840
Z	-15841
J	-15842
?	-15843
`	-15844
~	-15845
^	-15846
@	-15847
$	-15848
п	-15849
ҽ	-15850
ӏ	-15851
ø	-15852
ł	-15853
ш	-15854
щ	-15855
ĸ	-15856
ƅ	-15857
κ	-15858
ω	-15859
в	-15860
к	-15861
м	-15862
н	-15863
т	-15864
ь	-15865
ћ	-15866
ӈ	-15867
ԧ	-15868
ԩ	-15869
ട	-15870
þ	-15871
đ	-15872
ħ	-15873
ŧ	-15874
χ	-15875
ϼ	-15876
Ь	-15877
а	-15878
г	-15879
е	-15880
о	-15881
р	-15882
с	-15883
у	-15884
х	-15885
ъ	-15886
ѕ	-15887
і	-15888
ј	-15889
ѡ	-15890
ѵ	-15891
ҍ	-15892
ҏ	-15893
ґ	-15894
ғ	-15895
қ	-15896
ҝ	-15897
ҟ	-15898
ҡ	-15899
ң	-15900
ҥ	-15901
ҫ	-15902
ҭ	-15903
ұ	-15904
ҳ	-15905
һ	-15906
ҿ	-15907
ӄ	-15908
ӎ	-15909
ӽ	-15910
ӿ	-15911
ԁ	-15912
ԃ	-15913
ԍ	-15914
ԛ	-15915
ԝ	-15916
ԟ	-15917
ŋ	-15918
з	-15919
є	-15920
ҙ	-15921
ӊ	-15922
ӡ	-15923
ฟ	-15924
ร	-15925
င	-15926
ဌ	-15927
ဒ	-15928
၂	-15929
ၔ	-15930
ვ	-15931
“	-15932
”	-15933
ԥ	-15934
บ	-15935
ບ	-15936
æ	-15937
œ	-15938
ӕ	-15939
ӻ	-15940
ԋ	-15941
ԏ	-15942
ก	-15943
พ	-15944
ພ	-15945
ຟ	-15946
ຣ	-15947
ຮ	-15948
≠	-15949
პ	-15950
ï	-15951
ć	-15952
उ	-15953
ও	-15954
੨	-15955
—	-15956
’	-15957
。	-15958
ó	-15959
ę	-15960
ś	-15961
ż	-15962
μ	-15963
ԗ	-15964
०	-15965
२	-15966
০	-15967
২	-15968
৪	-15969
৭	-15970
੦	-15971
੧	-15972
੩	-15973
੪	-15974
੫	-15975
૦	-15976
૧	-15977
૨	-15978
૩	-15979
૭	-15980
ଠ	-15981
୦	-15982
୨	-15983
୫	-15984
౨	-15985
౩	-15986
೦	-15987
೩	-15988
೭	-15989
−	-15990
